node {
  name: "global_step/Initializer/zeros"
  op: "Const"
  attr {
    key: "_class"
    value {
      list {
        s: "loc:@global_step"
      }
    }
  }
  attr {
    key: "_output_shapes"
    value {
      list {
        shape {
        }
      }
    }
  }
  attr {
    key: "dtype"
    value {
      type: DT_INT64
    }
  }
  attr {
    key: "value"
    value {
      tensor {
        dtype: DT_INT64
        tensor_shape {
        }
        int64_val: 0
      }
    }
  }
}
node {
  name: "global_step"
  op: "VariableV2"
  attr {
    key: "_class"
    value {
      list {
        s: "loc:@global_step"
      }
    }
  }
  attr {
    key: "_output_shapes"
    value {
      list {
        shape {
        }
      }
    }
  }
  attr {
    key: "container"
    value {
      s: ""
    }
  }
  attr {
    key: "dtype"
    value {
      type: DT_INT64
    }
  }
  attr {
    key: "shape"
    value {
      shape {
      }
    }
  }
  attr {
    key: "shared_name"
    value {
      s: ""
    }
  }
}
node {
  name: "global_step/Assign"
  op: "Assign"
  input: "global_step"
  input: "global_step/Initializer/zeros"
  attr {
    key: "T"
    value {
      type: DT_INT64
    }
  }
  attr {
    key: "_class"
    value {
      list {
        s: "loc:@global_step"
      }
    }
  }
  attr {
    key: "_output_shapes"
    value {
      list {
        shape {
        }
      }
    }
  }
  attr {
    key: "use_locking"
    value {
      b: true
    }
  }
  attr {
    key: "validate_shape"
    value {
      b: true
    }
  }
}
node {
  name: "global_step/read"
  op: "Identity"
  input: "global_step"
  attr {
    key: "T"
    value {
      type: DT_INT64
    }
  }
  attr {
    key: "_class"
    value {
      list {
        s: "loc:@global_step"
      }
    }
  }
  attr {
    key: "_output_shapes"
    value {
      list {
        shape {
        }
      }
    }
  }
}
node {
  name: "global_step/IsVariableInitialized"
  op: "IsVariableInitialized"
  input: "global_step"
  attr {
    key: "_class"
    value {
      list {
        s: "loc:@global_step"
      }
    }
  }
  attr {
    key: "_output_shapes"
    value {
      list {
        shape {
        }
      }
    }
  }
  attr {
    key: "dtype"
    value {
      type: DT_INT64
    }
  }
}
node {
  name: "global_step/cond/Switch"
  op: "Switch"
  input: "global_step/IsVariableInitialized"
  input: "global_step/IsVariableInitialized"
  attr {
    key: "T"
    value {
      type: DT_BOOL
    }
  }
  attr {
    key: "_output_shapes"
    value {
      list {
        shape {
        }
        shape {
        }
      }
    }
  }
}
node {
  name: "global_step/cond/switch_t"
  op: "Identity"
  input: "global_step/cond/Switch:1"
  attr {
    key: "T"
    value {
      type: DT_BOOL
    }
  }
  attr {
    key: "_output_shapes"
    value {
      list {
        shape {
        }
      }
    }
  }
}
node {
  name: "global_step/cond/switch_f"
  op: "Identity"
  input: "global_step/cond/Switch"
  attr {
    key: "T"
    value {
      type: DT_BOOL
    }
  }
  attr {
    key: "_output_shapes"
    value {
      list {
        shape {
        }
      }
    }
  }
}
node {
  name: "global_step/cond/pred_id"
  op: "Identity"
  input: "global_step/IsVariableInitialized"
  attr {
    key: "T"
    value {
      type: DT_BOOL
    }
  }
  attr {
    key: "_output_shapes"
    value {
      list {
        shape {
        }
      }
    }
  }
}
node {
  name: "global_step/cond/read"
  op: "Identity"
  input: "global_step/cond/read/Switch:1"
  attr {
    key: "T"
    value {
      type: DT_INT64
    }
  }
  attr {
    key: "_output_shapes"
    value {
      list {
        shape {
        }
      }
    }
  }
}
node {
  name: "global_step/cond/read/Switch"
  op: "RefSwitch"
  input: "global_step"
  input: "global_step/cond/pred_id"
  attr {
    key: "T"
    value {
      type: DT_INT64
    }
  }
  attr {
    key: "_class"
    value {
      list {
        s: "loc:@global_step"
      }
    }
  }
  attr {
    key: "_output_shapes"
    value {
      list {
        shape {
        }
        shape {
        }
      }
    }
  }
}
node {
  name: "global_step/cond/Switch_1"
  op: "Switch"
  input: "global_step/Initializer/zeros"
  input: "global_step/cond/pred_id"
  attr {
    key: "T"
    value {
      type: DT_INT64
    }
  }
  attr {
    key: "_class"
    value {
      list {
        s: "loc:@global_step"
      }
    }
  }
  attr {
    key: "_output_shapes"
    value {
      list {
        shape {
        }
        shape {
        }
      }
    }
  }
}
node {
  name: "global_step/cond/Merge"
  op: "Merge"
  input: "global_step/cond/Switch_1"
  input: "global_step/cond/read"
  attr {
    key: "N"
    value {
      i: 2
    }
  }
  attr {
    key: "T"
    value {
      type: DT_INT64
    }
  }
  attr {
    key: "_output_shapes"
    value {
      list {
        shape {
        }
        shape {
        }
      }
    }
  }
}
node {
  name: "global_step/add/y"
  op: "Const"
  attr {
    key: "_output_shapes"
    value {
      list {
        shape {
        }
      }
    }
  }
  attr {
    key: "dtype"
    value {
      type: DT_INT64
    }
  }
  attr {
    key: "value"
    value {
      tensor {
        dtype: DT_INT64
        tensor_shape {
        }
        int64_val: 0
      }
    }
  }
}
node {
  name: "global_step/add"
  op: "Add"
  input: "global_step/cond/Merge"
  input: "global_step/add/y"
  attr {
    key: "T"
    value {
      type: DT_INT64
    }
  }
  attr {
    key: "_output_shapes"
    value {
      list {
        shape {
        }
      }
    }
  }
}
node {
  name: "Const"
  op: "Const"
  device: "/device:CPU:0"
  attr {
    key: "_output_shapes"
    value {
      list {
        shape {
          dim {
            size: 404
          }
        }
      }
    }
  }
  attr {
    key: "dtype"
    value {
      type: DT_DOUBLE
    }
  }
  attr {
    key: "value"
    value {
      tensor {
        dtype: DT_DOUBLE
        tensor_shape {
          dim {
            size: 404
          }
        }
        tensor_content: "\211\265\370\024\000\343y?\020@j\023\'\367\233?5\007\010\346\350\361\233?\3367\276\366\314\222\240?\314\356\311\303B\255\261?Tt$\227\377\220\236?\321W\220f,\232\266?\252\202QI\235\200\302?}\263\315\215\351\t\313?\371\203\201\347\336\303\305?\267E\231\r2\311\314?\303\330B\220\203\022\276?R\325\004Q\367\001\270?\327\206\212q\376&\344?D\377\004\027+j\344?O\314z1\224\023\344?[_$\264\345\334\360?\016\2760\231*\030\351?V\202\305\341\314\257\351?D\372\355\353\3009\347?\201[w\363T\007\364?jH\334c\351C\353?d\321tv2\270\363?6T\214\3637\241\357?\031\347oB!\002\350?\331Z_$\264\345\352?\034_{fI\200\345?\367\356\217\367\252\225\356??RD\206U\274\350?\322\000\336\002\t\n\360?\017\326\3779\314\027\362??\313\363\340\356\254\365?\367\314\222\00055\366?\314bb\363qm\362?\004[%X\034\316\371?\314bb\363qm\260?R~R\355\323\361\270?\371\367\031\027\016\204\264?+\030\225\324\th\306?\264\315\215\351\tK\234?\336\375\361^\2652\241?\000\343\0314\364O\300?\351&1\010\254\034\302?\0221%\222\350e\304?c\326\213\241\234h\277?T\256\360.\027\361\305?\225\361\3573.\034\310?\014\032\372\'\270X\315?\217\337\333\364g?\320?o*Ral!\314?\201\220,`\002\267\266?MJA\267\2274\246?S\226!\216uq\253?\215\013\007B\262\200\251?_\007\316\031Q\332\213?\232%\001jj\331\212?\354/\273\'\017\013\225?\300\004n\335\315S\215?i\000o\201\004\305\303?\215\264T\336\216p\272?\224\301Q\362\352\034\303?_\2652\341\227\372\305?\n\334\272\233\247:\274?\376\324x\351&1\300?\230\243\307\357m\372\223?\322\373\306\327\236Y\242?@\237\310\223\244k\246?\300\347\207\021\302\243\255?)a\246\355_Y\301?\326\342S\000\214g\300?\200\202\213\0255\230\266?\337\333\364g?R\304?\204d\001\023\270u\267?\212\223\373\035\212\002\311?f1\261\371\2706\264?\232\r2\311\310Y\270?\347\030\220\275\336\375\271?\322tv28J\266?Gw\020;S\350\254?\270\222\035\033\201x\265?\220\332\304\311\375\016\245?\361\272~\301n\330\246?\316\245\270\252\354\273\242?\312\246\\\341].\242?,`\002\267\356\346\251?>\350\331\254\372\\\255?\252\t\242\356\003\220\252?\003CV\267zN\262?B>\350\331\254\372\254?\367]\021\374o%\253?A\016J\230i\373\247?\375M(D\300!\244?\276\331\346\306\364\204\245?q=\n\327\243p\235?#gaO;\374\245?v\310\315p\003>\277?\336Y\273\355Bs\275?\220,`\002\267\356\276?h\005\206\254n\365\264?\000o\201\004\305\217\261?\017\227\034wJ\007\303?2ZGU\023D\275?\325\004Q\367\001H\315?\365\326\300V\t\026\313?\312\303B\255i\336\301?\232\323e1\261\371\300?\'\240\211\260\341\351\305?`\260\033\266-\312\300?\027\361\235\230\365b\300?\220\245\017]P\337\320?\032\335A\354L\241\273?\215\356 v\246\320\271?\310\200\354\365\356\217\277?t\315\344\233mn\314?\272f\362\31567\302?\347\221?\030x\356\305?\017bg\n\235\327\300?l\317,\tPS\303?\273~\301n\330\266\300?Hm\342\344~\207\302?(D\300!T\251\261?\201&\302\206\247W\262?\347\343\332P1\316\267?9z\374\336\246?\303?\202\250\373\000\2446\271?\212Y/\206r\242\305?\'\302\206\247W\312\330?\240\211\260\341\351\225\320?2\311\310Y\330\323\324?333333\354?k`\253\004\213\303\325?\237q\341@H\026\363?R\'\240\211\260\341\342?$EdX\305\033\325?#\303*\336\310<\357?\267\234KqU\331\341?\203i\030>\"\246\324?\\\224\331 \223\214\326?\3578EGr\371\317?\315\222\0005\265l\341?u\002\232\010\033\236\322?\254Q\017\321\350\016\372?\341\013\223\251\202\221\n@\210\205Z\323\274c\020@x\020;S\350<\006@b\204\360h\343\010\003@Z\365\271\332\212=\001@P6\345\n\357\362\002@\241l\312\025\336\245\002@\002\366\321\251+\337\005@\214\333h\000o\201\372?\215\234\205=\355\360\367?->\005\300x\006\362?\375\274\251H\2051\001@\2201w-!\237\366?\200C\250R\263G\014@\3367\276\366\314\222\003@\207\242@\237\310\223\363?\225+\274\313E|\365?\261U\202\305\341\314\366?\000:\314\227\027`\364?\231d\344,\354i\367?\273,&6\037W\375?\313\204_\352\347M\370?T\336\216pZ\360\001@1\010\254\034Zd\007@M\370\245~\336\024\000@<I\272f\362\315\374?H\277}\0358g\002@)\221D/\243\230\003@\305\224H\242\227Q\363?\027\267\321\000\336\202\002@W`\310\352V\317\301?\002Hm\342\344~\267?\035=~o\323\237\265?\035\376\232\254Q\017\261?Dn\206\033\360\371\261?-\262\235\357\247\306\253?\306\341\314\257\346\000\261?\325\347j+\366\227\255?\004\342u\375\202\335\260?\3745Y\243\036\242\261?\004s\364\370\275M\267?t\322\373\306\327\236\271?M\241\363\032\273D\265?\275:\307\200\354\365\256?\347\005\330G\247\256\254?)\\\217\302\365(\264?\266\370\024\000\343\031\300?\350\331\254\372\\m\265?I\272f\362\3156\267?p\231\323e1\261\261?<\203\206\376\t.\266?0\330\r\333\026e\226?\270\222\035\033\201x\215?F\261\334\322jH\214?\3230|DL\211\244?k\016\020\314\321\343\247?\t3m\377\312J\243?T\343\245\233\304 \240?\333m\027\232\3534\222?3\304\261.n\243\241?\354\273\"\370\337J\226?\r\340-\220\240\370\241?Q\024\350\023y\222\224?\331\231B\3475v\301?J\357\033_{f\315?\215\321:\252\232 \320?j\366@+0d\301?\374\221\"2\254\342\333?\206\346:\215\264T\306?\224j\237\216\307\014\330?\261U\202\305\341\314\313?\261\21272\217\374\301?\234\242#\271\374\207\322?\r\032\372\'\270X\311?\324+e\031\342X\247?N\356w(\n\364\261?\204\206\376\t.V\274?sh\221\355|?\275?\264\223\301Q\362\352\326?d#\020\257\353\027\332?\025\000\343\0314\364\343?\010=\233U\237\253\343?\312\246\\\341].\324??\000\251M\234\334\340?\206\224\237T\373t\330?\025\221a\025od\332?\241\241\177\202\213\025\323?g\270\001\237\037F\334?\311v\276\237\032/\341?T\313\326\372\"\241\335?)\350\366\222\306h\342?I\272f\362\3156\325?|Ic\264\216\252\334?\022\245\275\301\027&\325?*t^c\227\250\340?\342\222\343N\351`\340?{\332\341\257\311\032\265?\345\3259\006d\257\267?9\276\366\314\222\000\275?\321\226s)\256*\273?\201&\302\206\247W\272?2\261\371\2706T\300?\377\t.V\324`\312?\3500_^\200}\310?\217\307\014T\306\277\325?\323\366\257\2544)\311?_\014\345D\273\n\305?\265\333.4\327i\310?\205|\320\263Y\365\301?,H3\026Mg\313?\010wg\355\266\013\265?[\353\213\204\266\234\327?\006\r\375\023\\\254\250?\'\374R?o*\242?\036\217\031\250\214\177\217?RD\206U\274\221\343?\3544\322Ry;\345?\210c]\334F\003\345?\016\303G\304\224H\341?\362v\204\323\202\027\341?\023\355*\244\374\244\340?\177M\326\250\207h\352?\321W\220f,\232\341?:X\377\3470_\350?M\363\216St$\351?\031\377>\343\302\201\342?\262\235\357\247\306K\341?\367\344a\241\3264\267?\366]\021\374o%\323?9b->\005\300\304?-!\037\364lV\275?.x\321W\220f\314?\331Z_$\264\345\254?g\233\033\323\023\226\270?\224\3367\276\366\314\272?\312\253s\014\310^\257?\"\370\337Jvl\264?\350\301\335Y\273\355\312?\213\246\263\223\301Q\242?\2343\242\2647\370\242?6\310$#ga\257?\222W\347\030\220\275\216?X4\235\235\014\216\202?Qf\203L2r\206?\2201w-!\037\224?\375j\016\020\314\321\243?9\326\305m4\200\247?\307\021k\361)\000\246?Xni5$\356\241?Uj\366@+0\264?n4\200\267@\202\242?\270\257\003\347\214(\265?\257Z\231\360K\375\264?\005\377[\311\216\215\300?\342@H\0260\201\253?\350\237\340bE\r\302?\005\377[\311\216\215\260?)?\251\366\351x\254?Z\273\355Bs\235\246?\316\337\204B\004\034\242?c\271\245\325\220\270\267?\232\231\231\231\231\231\271?[\261\277\354\236<\254?\257\261KTo\r\254?\205\0108\204*5\263?\033\323\023\226x@\251?\315@e\374\373\214\337?\315;N\321\221\\\326?\275\030\312\211v\025\005@\264\315\215\351\tK\351?\345,\354i\207\277\320?!\223\214\234\205=\321?\214\271k\t\371\240\327?|\270\344\270S:\320?\037\021S\"\211^\324?\210\235)t^c\317?{\240\025\030\262\272\331?\347\251\016\271\031n\336?\371\240g\263\352s\305?\003\354\243SW>\307?\360P\024\350\023y\326?]\212\253\312\276+\322?j\207\277&k\324\325?;\215\264T\336\216\310?\261KTo\rl\323?\266l\255/\022\332\316?\034\360\371a\204\360\260?\202\250\373\000\2446\261?jH\334c\351C\247?\201`\216\036\277\267\251?\255n\365\234\364\276\241?J\265O\307c\006\252?\245\210\014\253x#\243?+j0\r\303G\244?]\304wb\326\213\241?3\254\342\215\314#\237?\223\214\234\205=\355\240?\206\261\205 \007%\254?\347\000\301\034=~\257?\023\355*\244\374\244\212?\300`7l[\224\231?\356_YiR\n\232?\232\217kC\3058\237?\343\252\262\357\212\340\237??\035\217\031\250\214\257?\022\245\275\301\027&\223?\222W\347\030\220\275\216?\253\347\244\367\215\257\235?\261U\202\305\341\314\257?\'1\010\254\034Z\264?\354\027\354\206m\213\262?r\304Z|\n\200\221?\241J\315\036h\005\246?\323\244\024t{I\273?e\215z\210F\367!@#J{\203/\314\016@tA}\313\234\316\024@\226x@\331\224\013\021@z1\224\023\355*\022@\213\340\177+\331\261\016@\350\361{\233\376l\r@k\324C4\272\343\020@\320,\tPS\313\013@aO;\37459\022@\336\223\207\205Z\223\r@A\361c\314]\013+@\325s\322\373\306\227\023@v\345\263<\017\256\026@d\222\221\263\260\'\032@\273\270\215\006\360v\"@F\266\363\375\324\210 @,e\031\342X7&@\001\336\002\t\212\1772@]\376C\372\355\2333@\372~j\274t\223.@\204*5{\240\245#@gDio\360\2457@vq\033\r\340\3351@\274\226\220\017z>V@\253>W[\261\277/@Ve\337\025\301_\"@\200\274W\255L\370\037@/n\243\001\274\0254@\217\344\362\037\322\3170@0*\251\023\320d8@\rq\254\213\333\2306@\264Y\365\271\332\252,@v\375\202\335\260M @\267b\177\331=\331\033@\007_\230L\025,\025@\200\267@\202\342\'\'@\265\211\223\373\035J!@\2343\242\2647\270*@\345\320\"\333\371n!@>\350\331\254\372|\027@\034\010\311\002&\260\036@\314]K\310\007-C@0L\246\nF\325#@yX\2505\315\0139@b\241\3264\357x,@\342\314\257\346\0001#@\0054\0216<\3158@"
      }
    }
  }
}
node {
  name: "Const_1"
  op: "Const"
  device: "/device:CPU:0"
  attr {
    key: "_output_shapes"
    value {
      list {
        shape {
          dim {
            size: 404
          }
        }
      }
    }
  }
  attr {
    key: "dtype"
    value {
      type: DT_DOUBLE
    }
  }
  attr {
    key: "value"
    value {
      tensor {
        dtype: DT_DOUBLE
        tensor_shape {
          dim {
            size: 404
          }
        }
        tensor_content: "\000\000\000\000\000\0002@\000\000\000\000\000\000\000\000\000\000\000\000\000\000\000\000\000\000\000\000\000\000\000\000\000\000\000\000\000\000\000\000\000\000\000\000\000\000\000\000\000\000\000\000\000\000)@\000\000\000\000\000\000)@\000\000\000\000\000\000)@\000\000\000\000\000\000)@\000\000\000\000\000\000)@\000\000\000\000\000\000)@\000\000\000\000\000\000)@\000\000\000\000\000\000\000\000\000\000\000\000\000\000\000\000\000\000\000\000\000\000\000\000\000\000\000\000\000\000\000\000\000\000\000\000\000\000\000\000\000\000\000\000\000\000\000\000\000\000\000\000\000\000\000\000\000\000\000\000\000\000\000\000\000\000\000\000\000\000\000\000\000\000\000\000\000\000\000\000\000\000\000\000\000\000\000\000\000\000\000\000\000\000\000\000\000\000\000\000\000\000\000\000\000\000\000\000\000\000\000\000\000\000\000\000\000\000\000\000\000\000\000\000\000\000\000\000\000\000\000\000\000\000\000\000\000\000\000\000\000\000\000\000\000\000\000\000\000\000\000\000\000\000\000\000\000\000\000\000\000\000\000\000\000\000\000\000\000\000\000\000\000\000\000\000\000\000\000\000\000\000\000\000\000\000\000\000\000\000\000\000\000\000\000\000\000\000\000\000\000\000\000\000\000\000\000\000\000\000\000\000\000\300R@\000\000\000\000\000\300R@\000\000\000\000\000\000\000\000\000\000\000\000\000\000\000\000\000\000\000\000\000\000\000\000\000\000\000\000\000\000\000\000\000\000\000\000\000\000\000\000\000\000\000\000\000\000\000\000\000\000\000\000\000\000\000\000\000\000\000\000\000\000\000\000\000\000\000\000\000\000\000\000\000\000\000\000\000\0005@\000\000\000\000\000\0005@\000\000\000\000\000\0005@\000\000\000\000\000\0005@\000\000\000\000\000\300R@\000\000\000\000\000\200V@\000\000\000\000\000@U@\000\000\000\000\000\000Y@\000\000\000\000\000\0009@\000\000\000\000\000\0009@\000\000\000\000\000\0009@\000\000\000\000\000\0009@\000\000\000\000\000\0009@\000\000\000\000\000\0009@\000\000\000\000\000\2001@\000\000\000\000\000\000T@\000\000\000\000\000\000T@\000\000\000\000\000\000)@\000\000\000\000\000\000)@\000\000\000\000\000\000)@\000\000\000\000\000\000\000\000\000\000\000\000\000\000\000\000\000\000\000\000\000\000\000\000\000\000\000\000\000\000\000\000\000\000\000\000\000\000\000\000\000\000\000\000\000\000\000\000\000\000\000\000\000\000\000\000\000\000\000\000\000\000\000\000\000\000\000\000\000\000\000\000\000\000\000\000\000\000\000\000\000\000\000\000\000\0009@\000\000\000\000\000\0009@\000\000\000\000\000\0009@\000\000\000\000\000\0009@\000\000\000\000\000\000\000\000\000\000\000\000\000\000\000\000\000\000\000\000\000\000\000\000\000\000\000\000\000\000\000\000\000\000\000\000\000\000\000\000\000\000\000\000\000\000\000\000\000\000\000\000\000\000\000\000\000\000\000\000\000\000\000\000\000\000\000\000\000\000<@\000\000\000\000\000\000<@\000\000\000\000\000\000<@\000\000\000\000\000\000\000\000\000\000\000\000\000\000\000\000\000\000\000\000\000\000\000\000\000\000\000\000\000\000\000\000\000\000\000\000\000\000\000\000\000\000\000\000\000\000\000\000\000\000\000\000\000\000\000\000\000\000\000\000\000\000\000\000\000\000\000\000\000\000\000\000\000\000\000\000\000\000\000\000\000\000\000\000\000\000\000\000\000\000\000\000\000\000\000\000\000\000\000\000\000\000\000\000\000\000\000\000\000\000\000\000\000\000\000\000\000\000\000\000\000\000\000\000\000\000\000\000\000\000\000\000\000\000\000\000\000\000\000\000\000\000\000\000\000\000\000\000\000\000\000\000\000\000\000\000\000\000\000\000\000\000\000\000\000\000\000\000\000\000\000\000\000\000\000\000\000\000\000\000\000\000\000\000\000\000\000\000\000\000\000\000\000\000\000\000\000\000\000\000\000\000\000\000\000\000\000\000\000\000\000\000\000\000\000\000\000\000\000\000\000\000\000\000\000\000\000\000\000\000\000\000\000\000\000\000\000\000\000\000\000\000\000\000\000\000\000\000\000\000\000\000\000\000\000\000\000\000\000\000\000\000\000\000\000\000\000\000\000\000\000\000\000\000\000\000\000\000\000\000\000\000\000\000\000\000\000\000\000\000\000\000\000\000\000\000\000\000\000\000\000\000\000\000\000\000\000\000\000\000\000\000\000\000\000\000\000\000\000\000\000\000\000\000\000\000\000\000\000\000\000\000\000\000\000\000\000\000\000\000\000\000\000\000\000\000\000\000\000\000\000\000\000\000\000\000\000\000\000\000\000\000\000\000\000\000\000\000\000\000\000\000\000\000\000\000\000\000\000\000\000\000\000\000\000\000\000\000\000\000\000\000\000\000\000\000\000\000\000\000\000\000\000\000\000\000\000\000\000\000\000\000\000\000\000\000\000\000\000\000\000\000\000\000\000\000\000\000\000\000\000\000\000\000\000\000\000\000\000\000\000\000\000\000\000\000\000\000\000\000\000\000\000\000\000\000\000\000\000\000\000\000\000\000\000\000\000\000\000\000\000\000\000\000\000\000\000\000\000\000\000\000\000\000\000\000\000\000\000\000\000\000\000\000\000\000\000\000\000\000\000\000\000\000\000\000\000\000\000\000\000\000\000\000\000\000\000\000\000\000\000\000\000\000\000\000\000\000\000\000\000\000\000\000\000\000\000\000\000\000\000\000\000\000\000\000\000\000\000\000\000\000\000\000\000\000\000\000\000\000\000\000\000\000\000\000\000\000\000\000\000\000\000\000\000\000\000\000\000\000\000\000\000\000\000\000\000\000\000\000\000\000\000\000\000\000\000\000\000\000\000\000\000\000\000\000\000\000\000\000\000\000\000\000\000\000\000\000\000\000\000\000\000\000\000\000\000\000\000\000\000\000\000\000\000\000\000\000\000\000\000\000\000\000\000\000\000\000\000\000\000\000\000\000\000\000\000\000\000\000\000\000\000\000\000\000\000\000\000\000\000\000\000\000\000\000\000\000\000\000\000\000\000\000\000\000\000\000\000\000\000\000\000\000\000\000\000\000\000\000\000\000\000\000\000\000\000\000\000\000\000\000\000\000\000\000\000\000\000\000\000\000\000\000\000\000\000\000\000\000\000\000\000\000\000\000\000\000\000\000\000\200F@\000\000\000\000\000\200F@\000\000\000\000\000\200F@\000\000\000\000\000\200F@\000\000\000\000\000\200F@\000\000\000\000\000\200F@\000\000\000\000\000\000N@\000\000\000\000\000\000N@\000\000\000\000\000\000T@\000\000\000\000\000\000T@\000\000\000\000\000\000T@\000\000\000\000\000\000T@\000\000\000\000\000\300W@\000\000\000\000\000\300W@\000\000\000\000\000\240T@\000\000\000\000\000\240T@\000\000\000\000\000\300W@\000\000\000\000\000\300W@\000\000\000\000\000\000\000\000\000\000\000\000\000\000\000\000\000\000\000\000\000\000\000\000\000\000\000\000\000\000\000\000\000\000\000\000\000\000\000\000\000\000\000\000\000\000\000\000\000\000\000\000\000\000\000\000\000\000\000\000\000\000\000\000\000\000\000\000\000\000\000\000\000\000\000\000\000\000\000\000\000\000\000\000\000\000\000\000\000\000\000\000\000\000\000\000\000\000\000\000\000\000\000\000\000\000\000\000\000\000\000\000\000\000\000\000\000\000\000\000\000\000\000\000\000\000\000\000\000\000\000\000\000\000\000\000\000\000\000\000\000\000\000\000\000\000\000\000\000\000\000\000\000\000\000\000\000\000\000\000\000\000\000\000\000\000\000\000\000\000\000\000\000\000\000\000\000\000\000\000\000\000\000\000\000\000\000\000\000\000\000\000\000\000\000\000\000\000\000\000\000\000\000\000\000\000\000\000\000\000\000\000\000\000\000\000\000\000\000\000\000\000\000\000\000\000\000\000\000\000\000\000\000\000\000\000\000\000\000\000\000\000\000\000\000\000\000\000\000\000\000\000\000\000\000\000\000\000\000\000\000\000\000\000\000\000\000\000\000\000>@\000\000\000\000\000\000>@\000\000\000\000\000\000>@\000\000\000\000\000\000>@\000\000\000\000\000\000>@\000\000\000\000\000\000>@\000\000\000\000\000\0006@\000\000\000\000\000\0006@\000\000\000\000\000\0006@\000\000\000\000\000\0006@\000\000\000\000\000\0006@\000\000\000\000\000\0006@\000\000\000\000\000\0006@\000\000\000\000\000\0006@\000\000\000\000\000\0006@\000\000\000\000\000\0006@\000\000\000\000\000\000T@\000\000\000\000\000\000T@\000\000\000\000\000\200V@\000\000\000\000\000\0004@\000\000\000\000\000\0004@\000\000\000\000\000\0004@\000\000\000\000\000\0004@\000\000\000\000\000\0004@\000\000\000\000\000\0004@\000\000\000\000\000\0004@\000\000\000\000\000\0004@\000\000\000\000\000\0004@\000\000\000\000\000\0004@\000\000\000\000\000\0004@\000\000\000\000\000\0004@\000\000\000\000\000\0004@\000\000\000\000\000\0004@\000\000\000\000\000\0004@\000\000\000\000\000\0004@\000\000\000\000\000\0004@\000\000\000\000\000\000D@\000\000\000\000\000\000D@\000\000\000\000\000\000D@\000\000\000\000\000\000D@\000\000\000\000\000\000D@\000\000\000\000\000\0004@\000\000\000\000\000\0004@\000\000\000\000\000\0004@\000\000\000\000\000\0004@\000\000\000\000\000\200V@\000\000\000\000\000\200V@\000\000\000\000\000\200K@\000\000\000\000\000\000T@\000\000\000\000\000@J@\000\000\000\000\000@J@\000\000\000\000\000@J@\000\000\000\000\000\000T@\000\000\000\000\000\000T@\000\000\000\000\000\000T@\000\000\000\000\000\000\000\000\000\000\000\000\000\000\000\000\000\000\000\000\000\000\000\000\000\000\000\000\000\000\000\000\000\000\000\000\000\000\000\000\000\000\000\000\000\200Q@\000\000\000\000\000\200Q@\000\000\000\000\000\200Q@\000\000\000\000\000\000A@\000\000\000\000\000\000A@\000\000\000\000\000\000A@\000\000\000\000\000\200@@\000\000\000\000\000\200@@\000\000\000\000\000\200@@\000\000\000\000\000\200@@\000\000\000\000\000\000\000\000\000\000\000\000\000\000\000\000\000\000\000\000\000\000\000\000\000\000\000\000\000\000\000\000\000\000\000\000\000\000\000\000\000\000\000\000\000\000\000\000\000\000\000\000\000\000\000\000\000\000\000\000\000\000\000\000\000\000\000\000\000\000\000\000\000\000\000\000\000\000\000\000\000\000\000\000\000\000\000\000\000\000\000\000\000\000\000\000\000\000\000\000\000\000\000\000\000\000\000\000\000\000\000\000\000\000\000\000\000\000\000\000\000\000\000\000\000\000\000\000\000\000\000\000\000\000\000\000\000\000\000\000\000\000\000\000\000\000\000\000\000\000\000\000\000\000\000\000\000\000\000\000\000\000\000\000\000\000\000\000\000\000\000\000\000\000\000\000\000\000\000\000\000\000\000\000\000\000\000\000\000\200A@\000\000\000\000\000\200A@\000\000\000\000\000\000\000\000\000\000\000\000\000\000\000\000\000\000\000\000\000\000\000\000\000\000\000\000\000\000\000\000\000\000\000\000\000\000\000\000\000\000\000\000\000\000\000\000\000\000\000\000\000\000\000\000\000\000\000\000\000\000\000\000\000\000\000\000\000\200A@\000\000\000\000\000\000\000\000\000\000\000\000\000\200K@\000\000\000\000\000\200K@\000\000\000\000\000\000\000\000\000\000\000\000\000\000\000\000\000\000\000\000\000@U@\000\000\000\000\000\000T@\000\000\000\000\000\000D@\000\000\000\000\000\000D@\000\000\000\000\000\000N@\000\000\000\000\000\000N@\000\000\000\000\000\200V@\000\000\000\000\000\000T@\000\000\000\000\000\000T@\000\000\000\000\000\000\000\000\000\000\000\000\000\000\000\000\000\000\000\000\000\000\000\000\000\000\000\000\000\000\000\000\000\000\000\000\000\000\000\000\000\000\000\000\000\000\000\000\000\000\000\000\000\000\000\000\000\000\000\000\000\000\000\000\000\000\000\000\000\000\000\000\000\000\000\000\000\000\000\000\000\000\000\000\000\000\000\000\000\000\000\000\000\000\000\000\000\000\000\000\000\000\000\000\000\000\000\000\000\000\000\000\000\000\000\000\000\000\000\000\000\000\000\000\000\000\000\000\000\000\000\000\000\000\000\000\000\000\000\000\000\000\000\000\000\000\000\000\000\000\000\000\000\000\000\000\000\000\000\000\000\000\000\000\000\000\000\000\000\000\000\000\000\000\000\000\000\000\000\000\000\000\000\000\000\000\000\000\000\000\000\000\000\000\000\000\000\000\000\000\000\000\000\000\000\000\000\000\000\000\000\000\000\000\000\000\000\000\000\000\000\000\000\000\000\000\000\000\000\000\000\000\000\000\000\000\000\000\000\000\000\000\000\000\000\000\000\000\000\000\000\000\000\000\000\000\000\000\000\000\000\000\000\000\000\000\000\000\000\000\000\000\000\000\000\000\000\000\000\000\000\000\000\000\000\000\000\000\000\000\000\000\000\000\000\000\000\000\000\000\000\000\000\000\000\000\000\000\000\000\000\000\000\000\000\000\000\000\000\000\000\000\000\000\000\000\000\000\000\000\000\000\000\000\000\000\000\000\000\000\000\000\000\000\000\000\000\000\000\000\000\000\000\000\000\000\000\000\000\000\000\000\000\000\000\000\000\000\000\000\000\000\000\000\000\000\000\000\000\000\000\000\000\000"
      }
    }
  }
}
node {
  name: "Const_2"
  op: "Const"
  device: "/device:CPU:0"
  attr {
    key: "_output_shapes"
    value {
      list {
        shape {
          dim {
            size: 404
          }
        }
      }
    }
  }
  attr {
    key: "dtype"
    value {
      type: DT_DOUBLE
    }
  }
  attr {
    key: "value"
    value {
      tensor {
        dtype: DT_DOUBLE
        tensor_shape {
          dim {
            size: 404
          }
        }
        tensor_content: "{\024\256G\341z\002@H\341z\024\256G\034@H\341z\024\256G\034@q=\n\327\243p\001@q=\n\327\243p\001@q=\n\327\243p\001@{\024\256G\341z\037@{\024\256G\341z\037@{\024\256G\341z\037@{\024\256G\341z\037@{\024\256G\341z\037@{\024\256G\341z\037@{\024\256G\341z\037@H\341z\024\256G @H\341z\024\256G @H\341z\024\256G @H\341z\024\256G @H\341z\024\256G @H\341z\024\256G @H\341z\024\256G @H\341z\024\256G @H\341z\024\256G @H\341z\024\256G @H\341z\024\256G @H\341z\024\256G @H\341z\024\256G @H\341z\024\256G @H\341z\024\256G @H\341z\024\256G @H\341z\024\256G @H\341z\024\256G @H\341z\024\256G @H\341z\024\256G @H\341z\024\256G @H\341z\024\256G @\327\243p=\n\327\027@\327\243p=\n\327\027@\327\243p=\n\327\027@\327\243p=\n\327\027@\232\231\231\231\231\231\007@\232\231\231\231\231\231\007@\244p=\n\327\243\033@\244p=\n\327\243\033@\244p=\n\327\243\033@\244p=\n\327\243\033@\244p=\n\327\243\033@\244p=\n\327\243\033@\244p=\n\327\243\033@\244p=\n\327\243\033@\244p=\n\327\243\033@\217\302\365(\\\217\026@\217\302\365(\\\217\026@\217\302\365(\\\217\026@\217\302\365(\\\217\026@\000\000\000\000\000\000\020@\205\353Q\270\036\205\363?\256G\341z\024\256\347?\037\205\353Q\270\036\365?\205\353Q\270\036\205\024@\205\353Q\270\036\205\024@\205\353Q\270\036\205\024@\205\353Q\270\036\205\024@\205\353Q\270\036\205\024@\205\353Q\270\036\205\024@\024\256G\341z\024\366?\366(\\\217\302\365\n@\366(\\\217\302\365\n@H\341z\024\256G\030@H\341z\024\256G\030@H\341z\024\256G\030@\037\205\353Q\270\236%@\037\205\353Q\270\236%@\037\205\353Q\270\236%@\037\205\353Q\270\236%@)\\\217\302\365\250)@)\\\217\302\365\250)@)\\\217\302\365\250)@)\\\217\302\365\250)@)\\\217\302\365\250)@)\\\217\302\365\250)@q=\n\327\243p\023@q=\n\327\243p\023@q=\n\327\243p\023@q=\n\327\243p\023@\366(\\\217\302\365\021@\366(\\\217\302\365\021@\366(\\\217\302\365\021@\366(\\\217\302\365\021@H\341z\024\256G\013@H\341z\024\256G\013@H\341z\024\256G\013@H\341z\024\256G\013@\024\256G\341z\024.@\024\256G\341z\024.@\024\256G\341z\024.@\037\205\353Q\270\036\007@\037\205\353Q\270\036\007@\037\205\353Q\270\036\007@\037\205\353Q\270\036\007@\037\205\353Q\270\036\007@\037\205\353Q\270\036!@\037\205\353Q\270\036!@\037\205\353Q\270\036!@\037\205\353Q\270\036!@\037\205\353Q\270\036!@\037\205\353Q\270\036!@\037\205\353Q\270\036!@\037\205\353Q\270\036!@\037\205\353Q\270\036!@\037\205\353Q\270\036!@\037\205\353Q\270\036!@\205\353Q\270\036\005$@\205\353Q\270\036\005$@\205\353Q\270\036\005$@\205\353Q\270\036\005$@\205\353Q\270\036\005$@\205\353Q\270\036\005$@\205\353Q\270\036\005$@\205\353Q\270\036\005$@\205\353Q\270\036\005$@fffff\2469@fffff\2469@fffff\2469@fffff\2469@fffff\2469@fffff\2469@fffff\2469@\244p=\n\327\3435@\244p=\n\327\3435@\244p=\n\327\3435@\244p=\n\327\3435@\244p=\n\327\3435@\244p=\n\327\3435@\244p=\n\327\3435@\244p=\n\327\3435@\244p=\n\327\3435@\244p=\n\327\3435@\244p=\n\327\3435@\244p=\n\327\3435@\244p=\n\327\3435@\244p=\n\327\3435@\244p=\n\327\3435@\024\256G\341z\2243@\024\256G\341z\2243@\024\256G\341z\2243@\024\256G\341z\2243@\024\256G\341z\2243@\024\256G\341z\2243@\024\256G\341z\2243@\024\256G\341z\2243@\024\256G\341z\2243@\024\256G\341z\2243@\024\256G\341z\2243@\024\256G\341z\2243@\024\256G\341z\2243@\024\256G\341z\2243@\024\256G\341z\2243@\024\256G\341z\2243@\024\256G\341z\2243@\024\256G\341z\2243@\024\256G\341z\2243@\024\256G\341z\2243@\024\256G\341z\2243@\024\256G\341z\2243@\024\256G\341z\2243@\024\256G\341z\2243@\024\256G\341z\2243@\024\256G\341z\2243@\024\256G\341z\2243@\024\256G\341z\2243@\024\256G\341z\2243@\024\256G\341z\2243@333333\020@333333\020@333333\020@333333\020@333333\020@333333\020@333333\020@\256G\341z\024\256\003@\256G\341z\024\256\003@\256G\341z\024\256\003@\256G\341z\024\256\003@\256G\341z\024\256\003@\256G\341z\024\256\003@\256G\341z\024\256\003@\256G\341z\024\256\003@\205\353Q\270\036\205\013@\205\353Q\270\036\205\013@\205\353Q\270\036\205\013@\205\353Q\270\036\205\013@\205\353Q\270\036\205\013@\205\353Q\270\036\205\013@q=\n\327\243p\007@q=\n\327\243p\007@q=\n\327\243p\335?R\270\036\205\353Q\370?R\270\036\205\353Q\370?R\270\036\205\353Q\370?\205\353Q\270\036\205\367?\205\353Q\270\036\205\367?=\n\327\243p=\000@=\n\327\243p=\000@q=\n\327\243p\005@q=\n\327\243p\005@\256G\341z\024.%@\256G\341z\024.%@\256G\341z\024.%@\256G\341z\024.%@\256G\341z\024.%@\256G\341z\024.%@\256G\341z\024.%@\256G\341z\024.%@\256G\341z\024.%@\256G\341z\024.%@\256G\341z\024.%@H\341z\024\256\307+@H\341z\024\256\307+@H\341z\024\256\307+@H\341z\024\256\307+@\315\314\314\314\314\314\030@\315\314\314\314\314\314\030@\315\314\314\314\314\314\030@\315\314\314\314\314\314\030@\315\314\314\314\314\314\030@\315\314\314\314\314\314\030@\315\314\314\314\314\314\030@\315\314\314\314\314\314\030@\315\314\314\314\314\314\030@\315\314\314\314\314\314\030@\315\314\314\314\314\314\030@\315\314\314\314\314\314\030@\315\314\314\314\314\314\030@\315\314\314\314\314\314\030@\315\314\314\314\314\314\030@\315\314\314\314\314\314\030@\315\314\314\314\314\314\030@\315\314\314\314\314\314\030@\270\036\205\353Q\270\023@\270\036\205\353Q\270\023@\270\036\205\353Q\270\023@\270\036\205\353Q\270\023@\270\036\205\353Q\270\023@\270\036\205\353Q\270\023@q=\n\327\243p\027@q=\n\327\243p\027@q=\n\327\243p\027@q=\n\327\243p\027@q=\n\327\243p\027@q=\n\327\243p\027@q=\n\327\243p\027@q=\n\327\243p\027@q=\n\327\243p\027@q=\n\327\243p\027@\037\205\353Q\270\036\r@\037\205\353Q\270\036\r@\000\000\000\000\000\000\016@\303\365(\\\217\302\017@\303\365(\\\217\302\017@\303\365(\\\217\302\017@\303\365(\\\217\302\017@\303\365(\\\217\302\017@\303\365(\\\217\302\017@\303\365(\\\217\302\017@\303\365(\\\217\302\017@\303\365(\\\217\302\017@\303\365(\\\217\302\017@\303\365(\\\217\302\017@\303\365(\\\217\302\017@\327\243p=\n\327\033@\327\243p=\n\327\033@\327\243p=\n\327\033@\327\243p=\n\327\033@\327\243p=\n\327\033@\244p=\n\327\243\031@\244p=\n\327\243\031@\244p=\n\327\243\031@\244p=\n\327\243\031@\244p=\n\327\243\031@\244p=\n\327\243\n@\244p=\n\327\243\n@\244p=\n\327\243\n@\244p=\n\327\243\n@\\\217\302\365(\\\363?\303\365(\\\217\302\007@\000\000\000\000\000\000\002@)\\\217\302\365(\374?H\341z\024\256G\025@H\341z\024\256G\025@H\341z\024\256G\025@\315\314\314\314\314\314\023@\315\314\314\314\314\314\023@\315\314\314\314\314\314\023@\327\243p=\n\327+@\327\243p=\n\327+@\327\243p=\n\327+@\327\243p=\n\327+@\327\243p=\n\327+@\354Q\270\036\205\353\001@\354Q\270\036\205\353\001@\354Q\270\036\205\353\001@\\\217\302\365(\\\030@\\\217\302\365(\\\030@\\\217\302\365(\\\030@q=\n\327\243p\001@q=\n\327\243p\001@q=\n\327\243p\001@q=\n\327\243p\001@\315\314\314\314\314\314#@\315\314\314\314\314\314#@\315\314\314\314\314\314#@\315\314\314\314\314\314#@\315\314\314\314\314\314#@\315\314\314\314\314\314#@\315\314\314\314\314\314#@\315\314\314\314\314\314#@\315\314\314\314\314\314#@\315\314\314\314\314\314#@\315\314\314\314\314\314#@\315\314\314\314\314\314#@\205\353Q\270\036\205\035@\205\353Q\270\036\205\035@\205\353Q\270\036\205\035@\205\353Q\270\036\205\035@\205\353Q\270\036\205\035@\205\353Q\270\036\205\035@\205\353Q\270\036\205\035@\205\353Q\270\036\205\035@\354Q\270\036\205\353\t@\354Q\270\036\205\353\t@\354Q\270\036\205\353\t@=\n\327\243p=\030@=\n\327\243p=\030@\303\365(\\\217\302\024@\303\365(\\\217\302\024@\303\365(\\\217\302\024@\303\365(\\\217\302\024@\303\365(\\\217\302\024@\303\365(\\\217\302\024@\303\365(\\\217\302\024@\303\365(\\\217\302\024@R\270\036\205\353Q\370?=\n\327\243p=\376?=\n\327\243p=\016@=\n\327\243p=\016@\217\302\365(\\\217\021@\217\302\365(\\\217\021@\232\231\231\231\231\231\020@\024\256G\341z\024\000@\000\000\000\000\000\000\364?\000\000\000\000\000\000\364?\n\327\243p=\n\373?\n\327\243p=\n\373?)\\\217\302\365(\000@\217\302\365(\\\217\376?\217\302\365(\\\217\376?\232\231\231\231\231\0312@\232\231\231\231\231\0312@\232\231\231\231\231\0312@\232\231\231\231\231\0312@\232\231\231\231\231\0312@\232\231\231\231\231\0312@\232\231\231\231\231\0312@\232\231\231\231\231\0312@\232\231\231\231\231\0312@\232\231\231\231\231\0312@\232\231\231\231\231\0312@\232\231\231\231\231\0312@\232\231\231\231\231\0312@\232\231\231\231\231\0312@\232\231\231\231\231\0312@\232\231\231\231\231\0312@\232\231\231\231\231\0312@\232\231\231\231\231\0312@\232\231\231\231\231\0312@\232\231\231\231\231\0312@\232\231\231\231\231\0312@\232\231\231\231\231\0312@\232\231\231\231\231\0312@\232\231\231\231\231\0312@\232\231\231\231\231\0312@\232\231\231\231\231\0312@\232\231\231\231\231\0312@\232\231\231\231\231\0312@\232\231\231\231\231\0312@\232\231\231\231\231\0312@\232\231\231\231\231\0312@\232\231\231\231\231\0312@\232\231\231\231\231\0312@\232\231\231\231\231\0312@\232\231\231\231\231\0312@\232\231\231\231\231\0312@\232\231\231\231\231\0312@\232\231\231\231\231\0312@\232\231\231\231\231\0312@\232\231\231\231\231\0312@\232\231\231\231\231\0312@\232\231\231\231\231\0312@\232\231\231\231\231\0312@\232\231\231\231\231\0312@\232\231\231\231\231\0312@\232\231\231\231\231\0312@\232\231\231\231\231\0312@\232\231\231\231\231\0312@"
      }
    }
  }
}
node {
  name: "Const_3"
  op: "Const"
  device: "/device:CPU:0"
  attr {
    key: "_output_shapes"
    value {
      list {
        shape {
          dim {
            size: 404
          }
        }
      }
    }
  }
  attr {
    key: "dtype"
    value {
      type: DT_DOUBLE
    }
  }
  attr {
    key: "value"
    value {
      tensor {
        dtype: DT_DOUBLE
        tensor_shape {
          dim {
            size: 404
          }
        }
        tensor_content: "\236\357\247\306K7\341?j\274t\223\030\004\336?j\274t\223\030\004\336?\035Zd;\337O\335?\035Zd;\337O\335?\035Zd;\337O\335?\370S\343\245\233\304\340?\370S\343\245\233\304\340?\370S\343\245\233\304\340?\370S\343\245\233\304\340?\370S\343\245\233\304\340?\370S\343\245\233\304\340?\370S\343\245\233\304\340?\236\357\247\306K7\341?\236\357\247\306K7\341?\236\357\247\306K7\341?\236\357\247\306K7\341?\236\357\247\306K7\341?\236\357\247\306K7\341?\236\357\247\306K7\341?\236\357\247\306K7\341?\236\357\247\306K7\341?\236\357\247\306K7\341?\236\357\247\306K7\341?\236\357\247\306K7\341?\236\357\247\306K7\341?\236\357\247\306K7\341?\236\357\247\306K7\341?\236\357\247\306K7\341?\236\357\247\306K7\341?\236\357\247\306K7\341?\236\357\247\306K7\341?\236\357\247\306K7\341?\236\357\247\306K7\341?\236\357\247\306K7\341?V\016-\262\235\357\337?V\016-\262\235\357\337?V\016-\262\235\357\337?V\016-\262\235\357\337?1\010\254\034Zd\333?1\010\254\034Zd\333?y\351&1\010\254\334?y\351&1\010\254\334?y\351&1\010\254\334?y\351&1\010\254\334?y\351&1\010\254\334?y\351&1\010\254\334?y\351&1\010\254\334?y\351&1\010\254\334?y\351&1\010\254\334?\177j\274t\223\030\334?\177j\274t\223\030\334?\177j\274t\223\030\334?\177j\274t\223\030\334?=\n\327\243p=\332?\230n\022\203\300\312\331?=\n\327\243p=\332?\347\373\251\361\322M\332?\313\241E\266\363\375\334?\313\241E\266\363\375\334?\313\241E\266\363\375\334?\313\241E\266\363\375\334?\313\241E\266\363\375\334?\313\241E\266\363\375\334?\376e\367\344a\241\332?F\266\363\375\324x\331?F\266\363\375\324x\331?\223\030\004V\016-\332?\223\030\004V\016-\332?\223\030\004V\016-\332?;\337O\215\227n\332?;\337O\215\227n\332?;\337O\215\227n\332?;\337O\215\227n\332?+\207\026\331\316\367\333?+\207\026\331\316\367\333?+\207\026\331\316\367\333?+\207\026\331\316\367\333?+\207\026\331\316\367\333?+\207\026\331\316\367\333?\335$\006\201\225C\333?\335$\006\201\225C\333?\335$\006\201\225C\333?\335$\006\201\225C\333?#\333\371~j\274\334?#\333\371~j\274\334?#\333\371~j\274\334?#\333\371~j\274\334?\262\235\357\247\306K\337?\262\235\357\247\306K\337?\262\235\357\247\306K\337?\262\235\357\247\306K\337?\031\004V\016-\262\335?\031\004V\016-\262\335?\031\004V\016-\262\335?{\024\256G\341z\334?{\024\256G\341z\334?{\024\256G\341z\334?{\024\256G\341z\334?{\024\256G\341z\334?\244p=\n\327\243\340?\244p=\n\327\243\340?\244p=\n\327\243\340?\244p=\n\327\243\340?\244p=\n\327\243\340?\244p=\n\327\243\340?\244p=\n\327\243\340?\244p=\n\327\243\340?\244p=\n\327\243\340?\244p=\n\327\243\340?\244p=\n\327\243\340?\033/\335$\006\201\341?\033/\335$\006\201\341?\033/\335$\006\201\341?\033/\335$\006\201\341?\033/\335$\006\201\341?\033/\335$\006\201\341?\033/\335$\006\201\341?\033/\335$\006\201\341?\033/\335$\006\201\341?d;\337O\215\227\342?d;\337O\215\227\342?d;\337O\215\227\342?d;\337O\215\227\342?d;\337O\215\227\342?d;\337O\215\227\342?d;\337O\215\227\342?+\207\026\331\316\367\343?+\207\026\331\316\367\343?+\207\026\331\316\367\343?+\207\026\331\316\367\343?+\207\026\331\316\367\343?+\207\026\331\316\367\343?+\207\026\331\316\367\343?+\207\026\331\316\367\343?+\207\026\331\316\367\343?+\207\026\331\316\367\343?+\207\026\331\316\367\343?+\207\026\331\316\367\343?+\207\026\331\316\367\343?+\207\026\331\316\367\343?+\207\026\331\316\367\343?\254\034Zd;\337\353?\254\034Zd;\337\353?\254\034Zd;\337\353?\254\034Zd;\337\353?\254\034Zd;\337\353?\254\034Zd;\337\353?\254\034Zd;\337\353?\254\034Zd;\337\353?\254\034Zd;\337\353?\254\034Zd;\337\353?\254\034Zd;\337\353?\254\034Zd;\337\353?\254\034Zd;\337\353?\254\034Zd;\337\353?\254\034Zd;\337\353?\\\217\302\365(\\\343?\\\217\302\365(\\\343?\254\034Zd;\337\353?\\\217\302\365(\\\343?\\\217\302\365(\\\343?\\\217\302\365(\\\343?\\\217\302\365(\\\343?\\\217\302\365(\\\343?\\\217\302\365(\\\343?\\\217\302\365(\\\343?\\\217\302\365(\\\343?\\\217\302\365(\\\343?\\\217\302\365(\\\343?\\\217\302\365(\\\343?\\\217\302\365(\\\343?R\270\036\205\353Q\340?R\270\036\205\353Q\340?R\270\036\205\353Q\340?R\270\036\205\353Q\340?R\270\036\205\353Q\340?R\270\036\205\353Q\340?R\270\036\205\353Q\340?\010\254\034Zd;\337?\010\254\034Zd;\337?\010\254\034Zd;\337?\010\254\034Zd;\337?\010\254\034Zd;\337?\010\254\034Zd;\337?\010\254\034Zd;\337?\010\254\034Zd;\337?+\207\026\331\316\367\333?+\207\026\331\316\367\333?+\207\026\331\316\367\333?+\207\026\331\316\367\333?+\207\026\331\316\367\333?+\207\026\331\316\367\333?D\213l\347\373\251\331?D\213l\347\373\251\331?5^\272I\014\002\333?B`\345\320\"\333\331?B`\345\320\"\333\331?B`\345\320\"\333\331?\230n\022\203\300\312\331?\230n\022\203\300\312\331?\217\302\365(\\\217\332?\217\302\365(\\\217\332?\376e\367\344a\241\332?\376e\367\344a\241\332?\262\235\357\247\306K\337?\262\235\357\247\306K\337?\262\235\357\247\306K\337?\262\235\357\247\306K\337?\262\235\357\247\306K\337?\262\235\357\247\306K\337?\262\235\357\247\306K\337?\262\235\357\247\306K\337?\262\235\357\247\306K\337?\262\235\357\247\306K\337?\262\235\357\247\306K\337?\232\231\231\231\231\231\341?\232\231\231\231\231\231\341?\232\231\231\231\231\231\341?\232\231\231\231\231\231\341?\323Mb\020X9\340?\323Mb\020X9\340?\323Mb\020X9\340?\323Mb\020X9\340?T\343\245\233\304 \340?T\343\245\233\304 \340?T\343\245\233\304 \340?T\343\245\233\304 \340?T\343\245\233\304 \340?T\343\245\233\304 \340?T\343\245\233\304 \340?T\343\245\233\304 \340?\323Mb\020X9\340?\323Mb\020X9\340?\323Mb\020X9\340?\323Mb\020X9\340?\323Mb\020X9\340?\323Mb\020X9\340?1\010\254\034Zd\333?1\010\254\034Zd\333?1\010\254\034Zd\333?1\010\254\034Zd\333?1\010\254\034Zd\333?1\010\254\034Zd\333?/\335$\006\201\225\333?/\335$\006\201\225\333?/\335$\006\201\225\333?/\335$\006\201\225\333?/\335$\006\201\225\333?/\335$\006\201\225\333?/\335$\006\201\225\333?/\335$\006\201\225\333?/\335$\006\201\225\333?/\335$\006\201\225\333?J\014\002+\207\026\331?J\014\002+\207\026\331?\236\357\247\306K7\331?Nb\020X9\264\344?Nb\020X9\264\344?Nb\020X9\264\344?Nb\020X9\264\344?Nb\020X9\264\344?Nb\020X9\264\344?Nb\020X9\264\344?Nb\020X9\264\344?Nb\020X9\264\344?Nb\020X9\264\344?ffffff\342?ffffff\342?\031\004V\016-\262\335?\031\004V\016-\262\335?\031\004V\016-\262\335?\031\004V\016-\262\335?\031\004V\016-\262\335?\317\367S\343\245\233\334?\317\367S\343\245\233\334?\317\367S\343\245\233\334?\317\367S\343\245\233\334?\317\367S\343\245\233\334?c\177\331=yX\334?c\177\331=yX\334?c\177\331=yX\334?c\177\331=yX\334?D\213l\347\373\251\331?\232\231\231\231\231\231\331?L7\211A`\345\330?\244p=\n\327\243\330?\354Q\270\036\205\353\331?\354Q\270\036\205\353\331?\354Q\270\036\205\353\331?\347\373\251\361\322M\332?\347\373\251\361\322M\332?\347\373\251\361\322M\332?+\207\026\331\316\367\333?+\207\026\331\316\367\333?+\207\026\331\316\367\333?+\207\026\331\316\367\333?+\207\026\331\316\367\333?\232\231\231\231\231\231\331?\232\231\231\231\231\231\331?\232\231\231\231\231\231\331?\203\300\312\241E\266\333?\203\300\312\241E\266\333?\203\300\312\241E\266\333?h\221\355|?5\336?h\221\355|?5\336?h\221\355|?5\336?h\221\355|?5\336?\234\304 \260rh\341?\234\304 \260rh\341?\234\304 \260rh\341?\234\304 \260rh\341?\234\304 \260rh\341?\234\304 \260rh\341?\234\304 \260rh\341?\234\304 \260rh\341?\234\304 \260rh\341?\234\304 \260rh\341?\234\304 \260rh\341?\234\304 \260rh\341?Zd;\337O\215\337?Zd;\337O\215\337?Zd;\337O\215\337?Zd;\337O\215\337?Zd;\337O\215\337?Zd;\337O\215\337?Zd;\337O\215\337?Zd;\337O\215\337?q=\n\327\243p\335?q=\n\327\243p\335?q=\n\327\243p\335?\021\307\272\270\215\006\334?\021\307\272\270\215\006\334?{\024\256G\341z\340?{\024\256G\341z\340?{\024\256G\341z\340?{\024\256G\341z\340?{\024\256G\341z\340?{\024\256G\341z\340?{\024\256G\341z\340?{\024\256G\341z\340?}?5^\272I\334?\372~j\274t\223\340?`\345\320\"\333\371\336?`\345\320\"\333\371\336?}?5^\272I\334?}?5^\272I\334?\333\371~j\274t\333?\327\243p=\n\327\333?\333\371~j\274t\333?\333\371~j\274t\333?\347\373\251\361\322M\332?\347\373\251\361\322M\332?=\n\327\243p=\332?;\337O\215\227n\332?;\337O\215\227n\332?\244p=\n\327\243\350?\244p=\n\327\243\350?\244p=\n\327\243\350?\244p=\n\327\243\350?\244p=\n\327\243\350?\244p=\n\327\243\350?\244p=\n\327\243\350?\244p=\n\327\243\350?`\345\320\"\333\371\346?`\345\320\"\333\371\346?`\345\320\"\333\371\346?\376\324x\351&1\344?\376\324x\351&1\344?\376\324x\351&1\344?\376\324x\351&1\344?\376\324x\351&1\344?\307K7\211A`\345?\307K7\211A`\345?\307K7\211A`\345?F\266\363\375\324x\345?F\266\363\375\324x\345?F\266\363\375\324x\345?F\266\363\375\324x\345?F\266\363\375\324x\345?F\266\363\375\324x\345?F\266\363\375\324x\345?ffffff\346?ffffff\346?ffffff\346?ffffff\346?ffffff\346?ffffff\346?ffffff\346?ffffff\346?ffffff\346?ffffff\346?ffffff\346?\223\030\004V\016-\346?\223\030\004V\016-\346?\223\030\004V\016-\346?\223\030\004V\016-\346?\223\030\004V\016-\346?\223\030\004V\016-\346?\223\030\004V\016-\346?\223\030\004V\016-\346?\223\030\004V\016-\346?\223\030\004V\016-\346?\223\030\004V\016-\346?"
      }
    }
  }
}
node {
  name: "Const_4"
  op: "Const"
  device: "/device:CPU:0"
  attr {
    key: "_output_shapes"
    value {
      list {
        shape {
          dim {
            size: 404
          }
        }
      }
    }
  }
  attr {
    key: "dtype"
    value {
      type: DT_DOUBLE
    }
  }
  attr {
    key: "value"
    value {
      tensor {
        dtype: DT_DOUBLE
        tensor_shape {
          dim {
            size: 404
          }
        }
        tensor_content: "\315\314\314\314\314L\032@\311v\276\237\032\257\031@=\n\327\243p\275\034@\313\241E\266\363\375\033@J\014\002+\207\226\034@\270\036\205\353Q\270\031@?5^\272I\014\030@\343\245\233\304 \260\030@\240\032/\335$\206\026@j\274t\223\030\004\030@5^\272I\014\202\031@\360\247\306K7\t\030@u\223\030\004V\216\027@\262\235\357\247\306\313\027@\374\251\361\322Mb\030@\274t\223\030\004V\027@=\n\327\243p\275\027@\366(\\\217\302\365\027@m\347\373\251\361\322\025@\234\304 \260r\350\026@H\341z\024\256G\026@\\\217\302\365(\334\027@\305 \260rh\221\030@\215\227n\022\203@\027@\031\004V\016-\262\027@L7\211A`e\026@\215\227n\022\203@\027@\343\245\233\304 0\030@{\024\256G\341\372\031@\031\004V\016-\262\032@\'1\010\254\034\332\026@}?5^\272I\030@\315\314\314\314\314\314\027@\347\373\251\361\322\315\026@\374\251\361\322Mb\030@\010\254\034Zd\273\027@w\276\237\032/]\027@ffffff\027@w\276\237\032/\335\027@\341z\024\256Ga\032@\177j\274t\223\030\034@\024\256G\341z\024\033@\223\030\004V\016\255\030@\362\322Mb\020\330\030@-\262\235\357\247F\030@\356|?5^\272\026@\276\237\032/\335$\027@\037\205\353Q\270\036\030@\177j\274t\223\230\025@\234\304 \260rh\026@\'1\010\254\034\332\027@\366(\\\217\302u\030@%\006\201\225C\013\032@\313\241E\266\363\375\027@Zd;\337O\215\027@\345\320\"\333\371\376\034@\325x\351&1\210\031@\335$\006\201\225C\033@\024\256G\341z\224\030@h\221\355|?\265\027@\020X9\264\310\366\026@w\276\237\032/\335\027@m\347\373\251\361\322\031@?5^\272I\014\033@\321\"\333\371~j\034@)\\\217\302\365(\031@\331\316\367S\343%\027@P\215\227n\022\203\027@\307K7\211A`\026@\n\327\243p=\212\027@^\272I\014\002\253\031@\362\322Mb\020\330\027@\303\365(\\\217B\030@{\024\256G\341\372\030@d;\337O\215\027\031@\276\237\032/\335$\031@\004V\016-\262\035\031@\217\302\365(\\\217\030@!\260rh\221\355\030@\345\320\"\333\371~\027@\234\304 \260r\350\032@`\345\320\"\333y\032@h\221\355|?5\031@^\272I\014\002\253\030@u\223\030\004V\216\031@\205\353Q\270\036\205\032@\217\302\365(\\\017\030@\226C\213l\347{\030@\272I\014\002+\007\034@7\211A`\345P\034@^\272I\014\002\253\031@\037\205\353Q\270\236\031@\370S\343\245\233\304\031@\362\322Mb\020\330\030@\345\320\"\333\371\376\030@\000\000\000\000\000\200\032@\364\375\324x\351\246\030@\027\331\316\367S# @H\341z\024\256G\037@D\213l\347\373\251\035@\234\304 \260r\350\032@9\264\310v\276\037\033@\037\205\353Q\270\236\031@?5^\272I\214\030@^\272I\014\002\253\030@\201\225C\213lg\027@\362\322Mb\020X\027@5^\272I\014\202\030@L7\211A`\345\031@\321\"\333\371~\352\030@H\341z\024\256\307\030@\\\217\302\365(\334\032@\364\375\324x\351\246\027@\221\355|?5^\030@j\274t\223\030\004\031@\203\300\312\241E\266\027@Nb\020X9\264\030@/\335$\006\201\025\030@\260rh\221\355|\027@\006\201\225C\213\354\026@{\024\256G\341z\027@j\274t\223\030\004\030@\362\322Mb\020\330\027@\006\201\225C\213l\027@j\274t\223\030\204\027@\213l\347\373\251\361\027@\301\312\241E\266s\026@\022\203\300\312\241\305\026@\323Mb\020X\271\031@?5^\272I\214\026@\242E\266\363\375\324\031@\347\373\251\361\322M\031@\260rh\221\355|\031@}?5^\272I\027@\272I\014\002+\007\027@\327\243p=\nW\031@\370S\343\245\233\304\027@7\211A`\345\320\031@!\260rh\221m\027@\264\310v\276\237\232\030@\031\004V\016-\262\030@\372~j\274t\023\024@\351&1\010\254\234\025@\254\034Zd;\337\025@\351&1\010\254\234\023@\205\353Q\270\036\205\030@P\215\227n\022\203\026@Nb\020X9\264\023@X9\264\310v\276\024@\027\331\316\367Sc\026@\260rh\221\355|\030@\004V\016-\262\235\025@?5^\272I\014\024@\274t\223\030\004\326\026@j\274t\223\030\204\030@\317\367S\343\245\233\030@J\014\002+\207\026\025@\022\203\300\312\241\305\033@\335$\006\201\225C\030@\n\327\243p=\n\032@\000\000\000\000\000\000\031@\333\371~j\274\364\035@h\221\355|?5\037@\000\000\000\000\000\300 @\321\"\333\371~j\027@\201\225C\213lg\030@\236\357\247\306K\267\037@5^\272I\014\202\027@-\262\235\357\247F\031@\317\367S\343\245\233\031@\000\000\000\000\000\200\027@\205\353Q\270\036\205\027@}?5^\272I\026@D\213l\347\373\251\031@V\016-\262\235o\027@\311v\276\237\032/\032@\024\256G\341z\024\030@\303\365(\\\217B\031@q=\n\327\243p\033@\354Q\270\036\205\353\033@\217\302\365(\\\017\037@\372~j\274t\223\030@\037\205\353Q\270\236\034@\215\227n\022\203@\032@\321\"\333\371~j\026@\351&1\010\254\234\030@m\347\373\251\361R\037@T\343\245\233\304 \033@\323Mb\020X9\032@=\n\327\243p\275\034@\347\373\251\361\322\315\033@\333\371~j\274\364\032@\203\300\312\241E\266\034@333333\033@\321\"\333\371~j\032@\000\000\000\000\000\200\037@\331\316\367S\343%\035@!\260rh\221m\034@\177j\274t\223\030\035@fffff\346\033@\n\327\243p=\212\034@\331\316\367S\343\245\030@q=\n\327\243p\036@\266\363\375\324xi\037@\305 \260rh\021 @\252\361\322Mb\220\027@\347\373\251\361\322M\031@o\022\203\300\312!\027@\250\306K7\211A\030@\307K7\211A`\025@\327\243p=\n\327\027@\004V\016-\262\235\025@\356|?5^:\027@\000\000\000\000\000\200\031@\331\316\367S\343\245\025@\356|?5^\272\030@Zd;\337O\215\027@\305 \260rh\221\032@\347\373\251\361\322\315\027@\313\241E\266\363}\031@\347\373\251\361\322\315\033@\016-\262\235\357\247\030@j\274t\223\030\204\033@F\266\363\375\324x\032@\325x\351&1\210 @33333s!@\024\256G\341z\024 @\364\375\324x\351\246\034@X9\264\310v\276\036@h\221\355|?5\032@\006\201\225C\213\354\027@\331\316\367S\343\245\035@\006\201\225C\213\254 @X9\264\310v~ @\201\225C\213l\347\032@\362\322Mb\020X\030@\240\032/\335$\206\032@;\337O\215\227n\035@\006\201\225C\213\354\031@\006\201\225C\213l\032@J\014\002+\207\226\033@\341z\024\256Ga\030@;\337O\215\227n\031@\337O\215\227n\222\031@\254\034Zd;_\026@\354Q\270\036\205k\026@;\337O\215\227n\030@\201\225C\213l\347\030@\010\254\034Zd\273\031@\254\034Zd;\337\032@\246\233\304 \260\362\031@\215\227n\022\203\300\031@\207\026\331\316\367\323\033@\370S\343\245\233\204 @;\337O\215\227n\030@\033/\335$\006\201\027@7\211A`\345\320\035@\234\304 \260rh!@\242E\266\363\375T\035@\221\355|?5^\033@\035Zd;\337\317\034@\024\256G\341z\024\036@\262\235\357\247\306\313 @\002+\207\026\331N\035@m\347\373\251\361\322\034@=\n\327\243p=\026@u\223\030\004V\016\034@\362\322Mb\020\230 @\341z\024\256G\341\035@\256G\341z\024\256\027@\006\201\225C\213l\027@\366(\\\217\302\365\030@\364\375\324x\351&\032@\335$\006\201\225\303\036@\325x\351&1\010\033@\321\"\333\371~j\033@\305 \260rh\021\035@\347\373\251\361\322M\033@!\260rh\221\355\031@sh\221\355|?\033@H\341z\024\256G\037@\254\034Zd;\337\033@\024\256G\341z\224\036@\376\324x\351&\261\037@\'1\010\254\034Z\034@\035Zd;\337\317\031@\354Q\270\036\205\353\030@\274t\223\030\004\326\030@\303\365(\\\217B\031@\303\365(\\\217B\032@\213l\347\373\251q\033@d;\337O\215\227\034@\205\353Q\270\036\205\032@5^\272I\014\202\030@\360\247\306K7\t\030@\203\300\312\241E\266\032@\031\004V\016-2\032@)\\\217\302\365(\027@\341z\024\256Ga\031@D\213l\347\373)\034@\226C\213l\347{\033@\\\217\302\365(\\\032@{\024\256G\341\372\031@!\260rh\221\355\033@\213l\347\373\251\361\034@\020X9\264\310v\032@\256G\341z\024\256\035@L7\211A`e\033@\n\327\243p=\212\032@\027\331\316\367S\343\027@1\010\254\034Z\344\023@\260rh\221\355|\030@d;\337O\215\027\030@\252\361\322Mb\020\031@\370S\343\245\233D\032@R\270\036\205\353\321\026@\016-\262\235\357\247\027@T\343\245\233\304 \027@\272I\014\002+\207\031@\301\312\241E\266s\030@Nb\020X9\264\031@\033/\335$\006\201\031@D\213l\347\373)\030@\242E\266\363\375\324\026@)\\\217\302\365\250\031@\323Mb\020X\271\031@sh\221\355|?\031@\242E\266\363\375T\030@F\266\363\375\324x\027@\242E\266\363\375T\031@\372~j\274t\223\030@m\347\373\251\361\322\026@9\264\310v\276\037\030@\335$\006\201\225C\031@=\n\327\243p=\031@\331\316\367S\343%\030@`\345\320\"\333y\027@\024\256G\341z\224\027@#\333\371~j<\030@q=\n\327\243\360\027@\254\034Zd;\337\027@\020X9\264\310\366\034@)\\\217\302\365(\032@b\020X9\264\310\032@\345\320\"\333\371~\033@u\223\030\004V\016\030@d;\337O\215\227\027@\252\361\322Mb\020\032@\n\327\243p=\212\032@\250\306K7\211\301\033@\366(\\\217\302\365\031@7\211A`\345P\032@\360\247\306K7\211\027@\266\363\375\324x\351\032@\364\375\324x\351\246\026@X9\264\310v\276\027@\014\002+\207\026\331\030@\024\256G\341z\224\031@5^\272I\014\202\030@\246\233\304 \260r\030@d;\337O\215\227\031@\033/\335$\006\001\031@\246\233\304 \260r\025@\203\300\312\241E6\027@\217\302\365(\\\217!@\260rh\221\355|\014@\'1\010\254\034\332\023@\201\225C\213l\347\016@\341z\024\256G\341\023@\010\254\034Zd\273\032@\252\361\322Mb\020\034@w\276\237\032/\335\030@\000\000\000\000\000\200\027@9\264\310v\276\237\023@Zd;\337O\215\020@\215\227n\022\203@\035@\177j\274t\223\230\032@\223\030\004V\016-\033@\205\353Q\270\036\205\031@1\010\254\034Z\344\030@\254\034Zd;\337\033@\256G\341z\024.\032@\276\237\032/\335$\026@\024\256G\341z\024\026@F\266\363\375\324x\021@\317\367S\343\245\033\025@\317\367S\343\245\233\022@\000\000\000\000\000\000\024@\205\353Q\270\036\205\023@\217\302\365(\\\217\025@\'1\010\254\034\332\026@Nb\020X94\030@\276\237\032/\335$\024@\022\203\300\312\241\305\030@?5^\272I\214\027@\374\251\361\322M\342\031@\037\205\353Q\270\236\031@\260rh\221\355\374\026@\035Zd;\337\317\025@\234\304 \260rh\027@\246\233\304 \260\362\027@\254\034Zd;_\031@\004V\016-\262\235\031@L7\211A`e\025@"
      }
    }
  }
}
node {
  name: "Const_5"
  op: "Const"
  device: "/device:CPU:0"
  attr {
    key: "_output_shapes"
    value {
      list {
        shape {
          dim {
            size: 404
          }
        }
      }
    }
  }
  attr {
    key: "dtype"
    value {
      type: DT_DOUBLE
    }
  }
  attr {
    key: "value"
    value {
      tensor {
        dtype: DT_DOUBLE
        tensor_shape {
          dim {
            size: 404
          }
        }
        tensor_content: "\315\314\314\314\314LP@\232\231\231\231\231\271S@\315\314\314\314\314\214N@fffff\346F@\232\231\231\231\231\031K@\232\231\231\231\231YM@fffff\246P@fffff\006X@\000\000\000\000\000\000Y@\232\231\231\231\231yU@33333\223W@\232\231\231\231\231\271T@\000\000\000\000\000\200C@fffff\346N@\000\000\000\000\000 U@\000\000\000\000\000@L@\315\314\314\314\314L=@\315\314\314\314\314lT@\315\314\314\314\314LB@\000\000\000\000\000`Q@fffff\206X@\315\314\314\314\314LV@\315\314\314\314\314\354V@\000\000\000\000\000\000Y@fffff\206W@\315\314\314\314\314lU@33333\223V@333333V@\232\231\231\231\231\231W@33333\323U@fffff\206W@\000\000\000\000\000\000Y@\000\000\000\000\000\200T@\000\000\000\000\000\300W@\232\231\231\231\2319X@\315\314\314\314\314\014Q@33333\263N@\000\000\000\000\000\300D@333333>@\315\314\314\314\314\3145@\232\231\231\231\231\231/@333333\007@ffffff\032@\000\000\000\000\000\000\032@\000\000\000\000\000\000D@fffff\346@@fffff\246@@\000\000\000\000\000`U@33333\323W@\000\000\000\000\000\000O@\232\231\231\231\231\331F@\000\000\000\000\000\200O@\232\231\231\231\231\0315@ffffff5@\315\314\314\314\314\314G@fffff\3465@\232\231\231\231\231\331A@\000\000\000\000\000@D@333333=@\232\231\231\231\231\231G@\315\314\314\314\314\214P@\232\231\231\231\231YW@33333\363P@33333\263E@\000\000\000\000\000\300M@\315\314\314\314\314\3141@\232\231\231\231\231\031?@ffffff5@ffffffB@\000\000\000\000\000\200@@ffffff\032@\000\000\000\000\000\2001@333333\037@\315\314\314\314\314\314\030@\000\000\000\000\000\000\030@\000\000\000\000\000\200F@\000\000\000\000\000\240R@fffff\346F@\232\231\231\231\231\331J@\315\314\314\314\314LB@\000\000\000\000\000\300@@\232\231\231\231\231\231Q@\232\231\231\231\231\031@@\232\231\231\231\231YG@\000\000\000\000\000\000H@\315\314\314\314\314\014L@\315\314\314\314\314\214F@ffffffL@33333\223U@\315\314\314\314\314\214O@fffff\206P@\232\231\231\231\231yR@\315\314\314\314\314\314J@fffff\346<@33333SS@fffff\346L@ffffffQ@\000\000\000\000\000\000S@33333sB@\000\000\000\000\000@O@\232\231\231\231\231\371S@33333\323Q@\232\231\231\231\231YU@\232\231\231\231\231\331U@\000\000\000\000\000\200V@\315\314\314\314\314,X@\232\231\231\231\231\371V@\315\314\314\314\314LU@fffffFX@\315\314\314\314\314\314V@333333K@ffffffT@\232\231\231\231\2319W@\232\231\231\231\231\331W@\315\314\314\314\314\014U@\315\314\314\314\314\014V@\000\000\000\000\000 R@fffff\246T@fffffFR@\315\314\314\314\314LP@\315\314\314\314\314lQ@fffff\006U@\232\231\231\231\2319W@\000\000\000\000\000@X@33333\363W@\232\231\231\231\231\031V@fffff\346W@\000\000\000\000\000\000X@33333\263X@\315\314\314\314\314\254W@\232\231\231\231\231\271X@\315\314\314\314\314lX@\232\231\231\231\231yX@\232\231\231\231\231\331W@\232\231\231\231\231\231X@\315\314\314\314\314\214X@\000\000\000\000\000`W@\232\231\231\231\231\231X@\315\314\314\314\314\214X@\232\231\231\231\231yX@ffffffW@\000\000\000\000\000\000Y@\000\000\000\000\000\000Y@\000\000\000\000\000\000Y@33333sX@\000\000\000\000\000\000Y@\000\000\000\000\000\000Y@\315\314\314\314\314\354W@33333sW@\232\231\231\231\231\271W@33333SX@\000\000\000\000\000\000Y@\000\000\000\000\000\000V@\000\000\000\000\000\240X@\000\000\000\000\000\000X@fffff\246T@\000\000\000\000\000\200W@\232\231\231\231\231YX@\000\000\000\000\000\000Y@\000\000\000\000\000\000Y@fffff&W@33333\263V@\315\314\314\314\314\214X@\232\231\231\231\231yW@33333\363V@\000\000\000\000\000@W@\315\314\314\314\314\014X@\315\314\314\314\314\314S@fffff\006X@\315\314\314\314\314\314W@fffff\246W@33333SX@\000\000\000\000\000 V@fffff\006U@\315\314\314\314\314,Q@\315\314\314\314\314\214@@\232\231\231\231\231\231G@\232\231\231\231\231YR@\232\231\231\231\231\231R@333333M@33333\323T@\232\231\231\231\231\031O@\315\314\314\314\314\014W@fffff\346W@33333sV@333333Q@\315\314\314\314\314\314J@\315\314\314\314\314\214D@\232\231\231\231\231\031=@33333sC@\000\000\000\000\000\2005@\315\314\314\314\314\314>@\315\314\314\314\314L:@\315\314\314\314\314\314#@\315\314\314\314\314\3142@\000\000\000\000\000\000@@\315\314\314\314\314\014A@\315\314\314\314\314LB@fffff&C@\232\231\231\231\231\231.@\315\314\314\314\314\314+@333333C@ffffff/@\232\231\231\231\231\231@@fffff\346?@\315\314\314\314\314L6@\000\000\000\000\000@J@\315\314\314\314\314,R@\315\314\314\314\314\214M@\000\000\000\000\000\000Y@fffff\006W@fffff&V@fffff\346J@fffff&@@\232\231\231\231\231\231#@333333E@\000\000\000\000\000\000L@fffffFU@33333sW@\232\231\231\231\231\031W@\000\000\000\000\000 V@33333\323V@\315\314\314\314\314lS@333333T@33333\223S@\000\000\000\000\000\300T@\000\000\000\000\000\240U@\232\231\231\231\231\371S@\000\000\000\000\000\0001@ffffff5@fffff\006Q@\232\231\231\231\2319S@33333SR@\232\231\231\231\231\231Q@\000\000\000\000\000\240P@\000\000\000\000\000\300N@\000\000\000\000\000 S@fffff\346Q@\000\000\000\000\000\2002@\232\231\231\231\231\031E@fffff&K@fffffFP@33333sJ@333333\037@\000\000\000\000\000 S@\315\314\314\314\314\214Q@33333sA@\315\314\314\314\314\314S@\315\314\314\314\314\214H@\000\000\000\000\000\2001@\000\000\000\000\000\000*@\315\314\314\314\314\314!@333333\033@\315\314\314\314\314\314 @\000\000\000\000\000\000@@\232\231\231\231\231\0313@\232\231\231\231\231\031A@\232\231\231\231\231\271U@\000\000\000\000\000\000Y@\000\000\000\000\000\000Y@33333sT@\232\231\231\231\231YV@\000\000\000\000\000\340V@\000\000\000\000\000\240W@fffff\346V@ffffffO@fffff&U@\000\000\000\000\000\300P@\315\314\314\314\314LJ@\000\000\000\000\000\300N@\315\314\314\314\314\014E@\315\314\314\314\314L0@\232\231\231\231\231YM@fffff\346I@33333s@@ffffffE@\000\000\000\000\000\200H@\232\231\231\231\231\231;@\315\314\314\314\314\014@@\232\231\231\231\231\031@@\000\000\000\000\000 P@\232\231\231\231\231\231B@\232\231\231\231\231\331H@\315\314\314\314\314\3148@\315\314\314\314\314\3144@fffff\346?@\000\000\000\000\000\200?@\315\314\314\314\314L?@\315\314\314\314\314\314F@fffff\3466@fffff\346;@33333\263;@ffffff7@ffffff2@fffff&E@\232\231\231\231\231\031?@\000\000\000\000\000\200I@\000\000\000\000\000\000M@\232\231\231\231\231\0314@\000\000\000\000\000\000$@33333\263G@333333D@ffffff2@33333\2631@\315\314\314\314\314\214D@\315\314\314\314\314\014M@\232\231\231\231\231\371Q@33333\223Q@\000\000\000\000\000\240T@\315\314\314\314\314,S@fffff\346B@ffffffJ@\232\231\231\231\231\231V@33333\263T@33333\323U@\315\314\314\314\314lS@\315\314\314\314\314\314T@\315\314\314\314\314\354Q@\315\314\314\314\314\314P@ffffffM@fffff&J@fffff&K@33333\363H@33333\223R@\315\314\314\314\314\014D@ffffff-@fffff\346<@\232\231\231\231\231\331E@\315\314\314\314\314\3149@3333331@\232\231\231\231\231\031@@ffffff<@\315\314\314\314\314L7@\315\314\314\314\314\014C@\000\000\000\000\000@C@\000\000\000\000\000@A@fffff&G@\315\314\314\314\314\314M@fffff\246B@33333\263F@\000\000\000\000\000@M@fffff\246H@\232\231\231\231\231\331M@333333L@\232\231\231\231\231\031<@\000\000\000\000\000@H@fffff&J@33333\263;@33333\263=@\000\000\000\000\000@A@333333F@33333\363A@\000\000\000\000\000\2002@\315\314\314\314\314\014B@fffff\3465@\000\000\000\000\000\2003@\232\231\231\231\231YX@\000\000\000\000\000\300V@\232\231\231\231\231\331T@33333ST@\000\000\000\000\000\000V@fffff\306V@\315\314\314\314\314\014X@\000\000\000\000\000@V@\232\231\231\231\231\271T@\232\231\231\231\231\371U@\232\231\231\231\231\331V@\000\000\000\000\000\000Y@\000\000\000\000\000\000Y@333333X@\000\000\000\000\000`X@\000\000\000\000\000\000Y@ffffffV@\000\000\000\000\000\000Y@\000\000\000\000\000\000Y@\232\231\231\231\231yX@33333SW@33333\263X@\315\314\314\314\314\014X@\000\000\000\000\000\000Y@\232\231\231\231\231\371V@fffff\306X@\000\000\000\000\000\000Y@\000\000\000\000\000\000Y@\315\314\314\314\314\314V@fffff\206X@\000\000\000\000\000\000Y@\000\000\000\000\000`V@\000\000\000\000\000\000Y@\232\231\231\231\231\271X@\000\000\000\000\000@X@\000\000\000\000\000\240T@\000\000\000\000\000@X@fffff&W@\315\314\314\314\314\254W@33333\263X@\000\000\000\000\000\000X@\232\231\231\231\231\271X@\000\000\000\000\000\000Y@33333sS@\000\000\000\000\000\000Y@\000\000\000\000\000\000Y@\000\000\000\000\000\000Y@\000\000\000\000\000\000X@"
      }
    }
  }
}
node {
  name: "Const_6"
  op: "Const"
  device: "/device:CPU:0"
  attr {
    key: "_output_shapes"
    value {
      list {
        shape {
          dim {
            size: 404
          }
        }
      }
    }
  }
  attr {
    key: "dtype"
    value {
      type: DT_DOUBLE
    }
  }
  attr {
    key: "value"
    value {
      tensor {
        dtype: DT_DOUBLE
        tensor_shape {
          dim {
            size: 404
          }
        }
        tensor_content: "\\\217\302\365(\\\020@\256\330_vO\336\023@\256\330_vO\336\023@\253>W[\261?\030@\253>W[\261?\030@\253>W[\261?\030@\313\241E\266\363=\026@Zd;\337O\315\027@\243\001\274\005\022T\030@\256\330_vO^\032@\302\027&S\005c\031@G\003x\013$\350\030@\313\020\307\272\270\315\025@\024\256G\341z\324\022@\360\026HP\374\330\021@t$\227\377\220\376\021@t$\227\377\220\376\021@\271\215\006\360\026\010\021@\254\034Zd;_\016@\254\034Zd;_\016@\303\323+e\031b\016@\224\366\006_\230\014\020@\377\262{\362\260\320\017@\032Q\332\033|a\020@)\355\r\2760\231\021@\341\013\223\251\202\321\021@\356|?5^\272\022@\216\006\360\026H\320\021@\375\366u\340\234\321\021@\333\371~j\274\364\020@;\337O\215\227\356\020@33333\263\020@\354Q\270\036\205\353\017@#J{\203/L\016@\243\001\274\005\022\024\016@\213\375e\367\344\341\n@gDio\360\005\013@\267b\177\331=y\017@\3274\3578E\307\016@\320\263Y\365\271\232\025@\320\263Y\365\271\232\025@\340\276\016\2343\342\026@\340\276\016\2343\342\026@\340\276\016\2343\342\026@\340\276\016\2343\342\026@\327\022\362A\317f\024@\327\022\362A\317f\024@\031s\327\022\362\301\026@{\024\256G\341z\027@\322o_\007\316Y\030@n4\200\267@B\033@n4\200\267@B\033@n4\200\267@B\033@n4\200\267@B\033@\363\037\322o_G\035@\206\311T\301\250d!@\216uq\033\r`\"@J{\203/L\246 @\212\037c\356ZB\037@\356|?5^\272\033@\327\022\362A\317\346\034@\240\032/\335$F\033@\364\375\324x\351\346\034@\352\225\262\014q\354\037@\212\216\344\362\037r\"@\031\004V\016-r\032@\031\004V\016-r\032@\313\241E\266\363\375\031@\313\241E\266\363\375\031@\313\241E\266\363\375\031@.\220\240\3701&\025@.\220\240\3701&\025@.\220\240\3701&\025@.\220\240\3701&\025@\250\306K7\211\001\021@\337\340\013\223\251\002\022@\241g\263\352s5\020@\351&1\010\254\\\020@\221~\373:p\016\024@\337\340\013\223\251\002\022@_\007\316\031Q\232\025@_\007\316\031Q\232\025@_\007\316\031Q\232\025@_\007\316\031Q\232\025@u\002\232\010\033\036\023@9\326\305m4\300\021@\241g\263\352s\265\021@\263\352s\265\025\373\r@\035\311\345?\244_\013@7\211A`\345P\013@\314]K\310\007\275\010@[\261\277\354\236\274\010@O@\023a\303S\r@O@\023a\303S\r@\354Q\270\036\205\353\014@g\325\347j+\366\013@g\325\347j+\366\013@g\325\347j+\366\013@g\325\347j+\366\013@g\325\347j+\366\013@b\241\3264\3578\006@E\330\360\364J\331\006@\017\2343\242\264\267\005@\017\2343\242\264\267\005@\221\355|?5^\003@\t\212\037c\356\332\000@\343\245\233\304 \260\001@B>\350\331\254\372\000@\330\201sF\224v\003@\225e\210c]\\\004@b\241\3264\3578\006@\354Q\270\036\205k\005@O@\023a\303\323\002@\374\251\361\322Mb\004@Zd;\337O\r\002@\2068\326\305m\264\003@\020z6\253>\327\005@B>\350\331\254\372\005@R\270\036\205\353\321\003@P\374\030s\327\022\006@\000o\201\004\305\017\002@\334\327\201sF\224\001@\340-\220\240\370\261\000@xz\245,C\034\377?\351\267\257\003\347\014\000@\245,C\034\353\342\377?\314\177H\277}\035\374?\"\375\366u\340\234\374?\000\000\000\000\000\000\375?=\233U\237\253\255\377?\246\233\304 \260\362\000@^\272I\014\002+\002@\346\256%\344\203\236\002@\212\037c\356Z\302\003@\370S\343\245\233\304\002@mV}\256\266\342\000@\325\th\"lx\377?\270@\202\342\307\230\375?\212\260\341\351\225\262\372?\373\\m\305\376\262\372?\'\302\206\247W\312\371?d\314]K\310\007\367?0L\246\nF%\365?\202\342\307\230\273\226\366?\177\373:p\316\210\365?\277\016\2343\242\264\366?N\321\221\\\376C\370?\345\362\037\322o_\367?\267b\177\331=y\370?~\0358gDi\370?\027\331\316\367S\343\371?\201\004\305\2171w\371?\245N@\023a\303\371?\r\340-\220\240\370\371?Z\365\271\332\212\375\373?!\260rh\221\355\373?\361c\314]K\310\373?(~\214\271k\t\376?=,\324\232\346\035\374?7\032\300[ A\374?\274\005\022\024?\306\374?\177\373:p\316\210\377?\336\223\207\205ZS\000@\262\235\357\247\306K\001@\307K7\211A`\003@\277}\0358gD\002@Y\027\267\321\000^\000@c\356ZB>h\003@\315\314\314\314\314\314\000@\232\231\231\231\231\031\002@c\356ZB>h\003@@\244\337\276\016\034\003@0*\251\023\320\304\004@\010=\233U\237+\005@\314\177H\277}\235\005@\036\026jM\363\016\t@8gDiop\014@\n\327\243p=\212\n@\373:p\316\210R\007@o\022\203\300\312\241\006@!\260rh\221\355\005@*:\222\313\177\310\004@\355\236<,\324\232\005@-\262\235\357\247\306\006@H\277}\0358\347\007@\224\207\205Z\323<\n@\325\347j+\366\227\t@;\001M\204\rO\016@\243\222:\001MD\022@\243\222:\001MD\022@\263{\362\260P\353\031@\263{\362\260P\353\031@\263{\362\260P\353\031@p\316\210\322\336\340\030@p\316\210\322\336\340\030@\325\347j+\366\227\026@#\333\371~j<\035@#\333\371~j<\035@#\333\371~j<\035@[\323\274\343\024\235\036@[\323\274\343\024\235\036@\024\256G\341z\024\031@\024\256G\341z\024\031@F\266\363\375\324x\024@F\266\363\375\324x\024@q\033\r\340-\220\017@\317f\325\347jk\021@\317f\325\347jk\021@\024\320D\330\360\364\020@\000\000\000\000\000\000\017@\243\222:\001M\004\017@R\270\036\205\353Q\r@\361\364JY\2068\r@q\033\r\340-\220\017@33333\263\014@q\033\r\340-\220\017@\204\rO\257\224\345\010@\312\303B\255i^\013@\223\251\202QI\035\007@+\030\225\324\t\350\n@\242\2647\370\302\344\006@\374\251\361\322Mb\010@\314\356\311\303B-\n@\314\356\311\303B-\n@\326V\354/\273\'\007@\326V\354/\273\'\007@D\372\355\353\300\271\t@D\372\355\353\300\271\t@9\326\305m4\000\013@9\326\305m4\000\013@\254\034Zd;_\r@\254\034Zd;_\r@0\273\'\017\013\265\016@e\031\342X\0277\r@e\031\342X\0277\r@e\031\342X\0277\r@d;\337O\215\227\020@d;\337O\215\227\020@\246\nF%u\302\030@\246\nF%u\302\030@\016\2760\231*X\031@\016\2760\231*X\031@1\010\254\034Z$\034@1\010\254\034Z$\034@6\315;N\321\321\037@6\315;N\321\321\037@#\333\371~j\034 @#\333\371~j\034 @u\223\030\004VN\037@u\223\030\004VN\037@\365JY\2068\226\035@\365JY\2068\226\035@\000\221~\373:\320!@\000\221~\373:\320!@\033\236^)\313p\"@\033\236^)\313p\"@\016\2760\231*X\031@7\211A`\345\320\374?\216\006\360\026HP\376?\240\211\260\341\351\025\000@\204\rO\257\224\345\000@\256\330_vO\036\001@\002+\207\026\331N\002@\376e\367\344a\241\000@R\'\240\211\260\341\376?b\020X9\264\310\377?q\033\r\340-\020\001@\345\362\037\322o_\003@`\345\320\"\333\371\006@\327\243p=\nW\017@\236\357\247\306K\267\021@\236\357\247\306K\267\021@\327\243p=\nW\017@\236\357\247\306Kw\021@\254\255\330_vO\020@\031\342X\027\267\021\021@\022\245\275\301\027&\023@\210\364\333\327\201s\023@\344\203\236\315\252\217\020@,\324\232\346\035g\020@\363\037\322o_\307\022@&S\005\243\222\372\024@\360\026HP\374\330\024@\n\327\243p=\212\027@B>\350\331\254:\035@B>\350\331\254:\035@=\233U\237\253-\"@0*\251\023\320D\035@0*\251\023\320D\035@0*\251\023\320D\035@\326\305m4\200w\024@\326\305m4\200w\024@\326\305m4\200w\024@\373\313\356\311\303\002\026@\373\313\356\311\303\002\026@HP\374\030s\327\027@HP\374\030s\327\027@H\341z\024\256G\031@\344\203\236\315\252O\037@\344\203\236\315\252O\037@\344\203\236\315\252O\037@\326\305m4\200\367\025@\326\305m4\200\367\025@\326\305m4\200\367\025@J\014\002+\207\026\020@\366(\\\217\302\365\n@\t\033\236^)\313\010@g\325\347j+v\t@\n\327\243p=\212\n@R\270\036\205\353\321\010@\326V\354/\273\'\004@\310\007=\233U\037\005@y\351&1\010\254\006@C\034\353\3426\032\n@\341\013\223\251\202\321\014@\217\302\365(\\\217\017@\351H.\377!\375\017@\377!\375\366u \020@\303\365(\\\217B\014@\031s\327\022\362\001\020@\232\010\033\236^)\022@\232\010\033\236^)\022@\030\225\324\th\342\022@\030\225\324\th\342\022@\030\225\324\th\342\022@\'\240\211\260\341\251\025@\'\240\211\260\341\251\025@\'\240\211\260\341\251\025@\353\3426\032\300\333\024@\353\3426\032\300\333\024@t$\227\377\220~\027@U0*\251\023\220\032@U0*\251\023\220\032@\023\362A\317f\325\031@\023\362A\317f\325\031@\305\376\262{\362\360\027@\"lxz\245\354\024@\366(\\\217\302u\026@\253>W[\261?\023@\253>W[\261?\023@\253>W[\261?\023@\327\022\362A\317&\034@\2505\315;N\021\031@=\233U\237\253\355\026@\315;N\321\221\334\031@\202sF\224\366\006 @\202sF\224\366\006 @\374\030s\327\022\022!@\343\245\233\304 \260 @\275R\226!\216\225!@\275R\226!\216\225!@\226\262\014q\254k%@\226\262\014q\254k%@T\343\245\233\304@(@\316\210\322\336\340+%@\316\210\322\336\340+%@\321\221\\\376C\372\000@{\203/L\246\n\004@\271\215\006\360\026\310\005@\030&S\005\243\022\004@0L\246\nF%\004@w\276\237\032/]\002@\300\354\236<,\324\000@(\017\013\265\246y\376?(\017\013\265\246y\376?\344\203\236\315\252\317\371?(~\214\271k\t\374?\317f\325\347j+\370?R\270\036\205\353Q\365?0\273\'\017\013\265\365?\314]K\310\007=\363?\277\016\2343\242\264\362?P\374\030s\327\022\362?Dio\360\205\311\362?\376\324x\351&1\362?\310\230\273\226\220\017\365?\024?\306\334\265\204\365?\356|?5^\272\365?\005\305\2171w-\366?\005\305\2171w-\366?D\213l\347\373\251\366?\312T\301\250\244N\370?\014\223\251\202QI\371?+\366\227\335\223\207\370?\325x\351&1\010\367?\2505\315;N\321\366?(\017\013\265\246y\367?A\361c\314]K\370?;\337O\215\227n\371?J{\203/L\246\373?m\347\373\251\361\322\376?\201&\302\206\247W\001@R\270\036\205\353Q\374?\360\205\311T\301\250\374?\3019#J{\203\374?\261Pk\232w\234\373?\300\354\236<,\324\372?\030\225\324\th\"\372?\023\362A\317f\325\367?\304\261.n\243\001\370?$(~\214\271k\371?:#J{\203/\371?\323Mb\020X9\372?\221\017z6\253>\373?"
      }
    }
  }
}
node {
  name: "Const_7"
  op: "Const"
  device: "/device:CPU:0"
  attr {
    key: "_output_shapes"
    value {
      list {
        shape {
          dim {
            size: 404
          }
        }
      }
    }
  }
  attr {
    key: "dtype"
    value {
      type: DT_DOUBLE
    }
  }
  attr {
    key: "value"
    value {
      tensor {
        dtype: DT_DOUBLE
        tensor_shape {
          dim {
            size: 404
          }
        }
        tensor_content: "\000\000\000\000\000\200r@\000\000\000\000\000@n@\000\000\000\000\000@n@\000\000\000\000\000\300k@\000\000\000\000\000\300k@\000\000\000\000\000\300k@\000\000\000\000\000ps@\000\000\000\000\000ps@\000\000\000\000\000ps@\000\000\000\000\000ps@\000\000\000\000\000ps@\000\000\000\000\000ps@\000\000\000\000\000ps@\000\000\000\000\0000s@\000\000\000\000\0000s@\000\000\000\000\0000s@\000\000\000\000\0000s@\000\000\000\000\0000s@\000\000\000\000\0000s@\000\000\000\000\0000s@\000\000\000\000\0000s@\000\000\000\000\0000s@\000\000\000\000\0000s@\000\000\000\000\0000s@\000\000\000\000\0000s@\000\000\000\000\0000s@\000\000\000\000\0000s@\000\000\000\000\0000s@\000\000\000\000\0000s@\000\000\000\000\0000s@\000\000\000\000\0000s@\000\000\000\000\0000s@\000\000\000\000\0000s@\000\000\000\000\0000s@\000\000\000\000\0000s@\000\000\000\000\000pq@\000\000\000\000\000pq@\000\000\000\000\000pq@\000\000\000\000\000pq@\000\000\000\000\000\200o@\000\000\000\000\000\200o@\000\000\000\000\000 m@\000\000\000\000\000 m@\000\000\000\000\000 m@\000\000\000\000\000 m@\000\000\000\000\000 m@\000\000\000\000\000 m@\000\000\000\000\000 m@\000\000\000\000\000 m@\000\000\000\000\000 m@\000\000\000\000\000`n@\000\000\000\000\000`n@\000\000\000\000\000`n@\000\000\000\000\000`n@\000\000\000\000\000P}@\000\000\000\000\000@l@\000\000\000\000\000\220s@\000\000\000\000\000\000p@\000\000\000\000\000\300q@\000\000\000\000\000\300q@\000\000\000\000\000\300q@\000\000\000\000\000\300q@\000\000\000\000\000\300q@\000\000\000\000\000\300q@\000\000\000\000\000\000k@\000\000\000\000\000\020u@\000\000\000\000\000\020u@\000\000\000\000\000\220u@\000\000\000\000\000\220u@\000\000\000\000\000\220u@\000\000\000\000\000\020s@\000\000\000\000\000\020s@\000\000\000\000\000\020s@\000\000\000\000\000\020s@\000\000\000\000\000\340x@\000\000\000\000\000\340x@\000\000\000\000\000\340x@\000\000\000\000\000\340x@\000\000\000\000\000\340x@\000\000\000\000\000\340x@\000\000\000\000\000\220q@\000\000\000\000\000\220q@\000\000\000\000\000\220q@\000\000\000\000\000\220q@\000\000\000\000\000\340n@\000\000\000\000\000\340n@\000\000\000\000\000\340n@\000\000\000\000\000\340n@\000\000\000\000\000\340p@\000\000\000\000\000\340p@\000\000\000\000\000\340p@\000\000\000\000\000\340p@\000\000\000\000\000\340p@\000\000\000\000\000\340p@\000\000\000\000\000\340p@\000\000\000\000\000@q@\000\000\000\000\000@q@\000\000\000\000\000@q@\000\000\000\000\000@q@\000\000\000\000\000@q@\000\000\000\000\000\000x@\000\000\000\000\000\000x@\000\000\000\000\000\000x@\000\000\000\000\000\000x@\000\000\000\000\000\000x@\000\000\000\000\000\000x@\000\000\000\000\000\000x@\000\000\000\000\000\000x@\000\000\000\000\000\000x@\000\000\000\000\000\000x@\000\000\000\000\000\000x@\000\000\000\000\000\000{@\000\000\000\000\000\000{@\000\000\000\000\000\000{@\000\000\000\000\000\000{@\000\000\000\000\000\000{@\000\000\000\000\000\000{@\000\000\000\000\000\000{@\000\000\000\000\000\000{@\000\000\000\000\000\000{@\000\000\000\000\000\200g@\000\000\000\000\000\200g@\000\000\000\000\000\200g@\000\000\000\000\000\200g@\000\000\000\000\000\200g@\000\000\000\000\000\200g@\000\000\000\000\000\200g@\000\000\000\000\000P{@\000\000\000\000\000P{@\000\000\000\000\000P{@\000\000\000\000\000P{@\000\000\000\000\000P{@\000\000\000\000\000P{@\000\000\000\000\000P{@\000\000\000\000\000P{@\000\000\000\000\000P{@\000\000\000\000\000P{@\000\000\000\000\000P{@\000\000\000\000\000P{@\000\000\000\000\000P{@\000\000\000\000\000P{@\000\000\000\000\000P{@\000\000\000\000\0000y@\000\000\000\000\0000y@\000\000\000\000\0000y@\000\000\000\000\0000y@\000\000\000\000\0000y@\000\000\000\000\0000y@\000\000\000\000\0000y@\000\000\000\000\0000y@\000\000\000\000\0000y@\000\000\000\000\0000y@\000\000\000\000\0000y@\000\000\000\000\0000y@\000\000\000\000\0000y@\000\000\000\000\0000y@\000\000\000\000\0000y@\000\000\000\000\0000y@\000\000\000\000\0000y@\000\000\000\000\0000y@\000\000\000\000\0000y@\000\000\000\000\0000y@\000\000\000\000\0000y@\000\000\000\000\0000y@\000\000\000\000\0000y@\000\000\000\000\0000y@\000\000\000\000\0000y@\000\000\000\000\0000y@\000\000\000\000\0000y@\000\000\000\000\0000y@\000\000\000\000\0000y@\000\000\000\000\0000y@\000\000\000\000\000\200r@\000\000\000\000\000\200r@\000\000\000\000\000\200r@\000\000\000\000\000\200r@\000\000\000\000\000\200r@\000\000\000\000\000\200r@\000\000\000\000\000\200r@\000\000\000\000\000 h@\000\000\000\000\000 h@\000\000\000\000\000 h@\000\000\000\000\000 h@\000\000\000\000\000 h@\000\000\000\000\000 h@\000\000\000\000\000 h@\000\000\000\000\000 h@\000\000\000\000\000\340x@\000\000\000\000\000\340x@\000\000\000\000\000\340x@\000\000\000\000\000\340x@\000\000\000\000\000\340x@\000\000\000\000\000\340x@\000\000\000\000\000\220p@\000\000\000\000\000\220p@\000\000\000\000\000\340o@\000\000\000\000\000\220t@\000\000\000\000\000\220t@\000\000\000\000\000\220t@\000\000\000\000\000 y@\000\000\000\000\000 y@\000\000\000\000\000\300u@\000\000\000\000\000\300u@\000\000\000\000\000\000l@\000\000\000\000\000\000l@\000\000\000\000\000Pq@\000\000\000\000\000Pq@\000\000\000\000\000Pq@\000\000\000\000\000Pq@\000\000\000\000\000Pq@\000\000\000\000\000Pq@\000\000\000\000\000Pq@\000\000\000\000\000Pq@\000\000\000\000\000Pq@\000\000\000\000\000Pq@\000\000\000\000\000Pq@\000\000\000\000\000@q@\000\000\000\000\000@q@\000\000\000\000\000@q@\000\000\000\000\000@q@\000\000\000\000\0000s@\000\000\000\000\0000s@\000\000\000\000\0000s@\000\000\000\000\0000s@\000\000\000\000\0000s@\000\000\000\000\0000s@\000\000\000\000\0000s@\000\000\000\000\0000s@\000\000\000\000\0000s@\000\000\000\000\0000s@\000\000\000\000\0000s@\000\000\000\000\0000s@\000\000\000\000\0000s@\000\000\000\000\0000s@\000\000\000\000\0000s@\000\000\000\000\0000s@\000\000\000\000\0000s@\000\000\000\000\0000s@\000\000\000\000\000\300r@\000\000\000\000\000\300r@\000\000\000\000\000\300r@\000\000\000\000\000\300r@\000\000\000\000\000\300r@\000\000\000\000\000\300r@\000\000\000\000\000\240t@\000\000\000\000\000\240t@\000\000\000\000\000\240t@\000\000\000\000\000\240t@\000\000\000\000\000\240t@\000\000\000\000\000\240t@\000\000\000\000\000\240t@\000\000\000\000\000\240t@\000\000\000\000\000\240t@\000\000\000\000\000\240t@\000\000\000\000\000\260s@\000\000\000\000\000\260s@\000\000\000\000\000\200n@\000\000\000\000\000\200p@\000\000\000\000\000\200p@\000\000\000\000\000\200p@\000\000\000\000\000\200p@\000\000\000\000\000\200p@\000\000\000\000\000\200p@\000\000\000\000\000\200p@\000\000\000\000\000\200p@\000\000\000\000\000\200p@\000\000\000\000\000\200p@\000\000\000\000\000\200p@\000\000\000\000\000\200p@\000\000\000\000\000\340k@\000\000\000\000\000\340k@\000\000\000\000\000\340k@\000\000\000\000\000\340k@\000\000\000\000\000\340k@\000\000\000\000\000\300o@\000\000\000\000\000\300o@\000\000\000\000\000\300o@\000\000\000\000\000\300o@\000\000\000\000\000\300o@\000\000\000\000\000\000k@\000\000\000\000\000\000k@\000\000\000\000\000\000k@\000\000\000\000\000\000k@\000\000\000\000\000\300h@\000\000\000\000\000\320q@\000\000\000\000\000\300r@\000\000\000\000\000 n@\000\000\000\000\000Pr@\000\000\000\000\000Pr@\000\000\000\000\000Pr@\000\000\000\000\000\240n@\000\000\000\000\000\240n@\000\000\000\000\000\240n@\000\000\000\000\000\020r@\000\000\000\000\000\020r@\000\000\000\000\000\020r@\000\000\000\000\000\020r@\000\000\000\000\000\020r@\000\000\000\000\000`v@\000\000\000\000\000`v@\000\000\000\000\000`v@\000\000\000\000\000\220t@\000\000\000\000\000\220t@\000\000\000\000\000\220t@\000\000\000\000\000\300k@\000\000\000\000\000\300k@\000\000\000\000\000\300k@\000\000\000\000\000\300k@\000\000\000\000\000\000s@\000\000\000\000\000\000s@\000\000\000\000\000\000s@\000\000\000\000\000\000s@\000\000\000\000\000\000s@\000\000\000\000\000\000s@\000\000\000\000\000\000s@\000\000\000\000\000\000s@\000\000\000\000\000\000s@\000\000\000\000\000\000s@\000\000\000\000\000\000s@\000\000\000\000\000\000s@\000\000\000\000\000\360q@\000\000\000\000\000\360q@\000\000\000\000\000\360q@\000\000\000\000\000\360q@\000\000\000\000\000\360q@\000\000\000\000\000\360q@\000\000\000\000\000\360q@\000\000\000\000\000\360q@\000\000\000\000\000\340z@\000\000\000\000\000\340z@\000\000\000\000\000\340z@\000\000\000\000\000\000s@\000\000\000\000\000\000s@\000\000\000\000\000\000l@\000\000\000\000\000\000l@\000\000\000\000\000\000l@\000\000\000\000\000\000l@\000\000\000\000\000\000l@\000\000\000\000\000\000l@\000\000\000\000\000\000l@\000\000\000\000\000\000l@\000\000\000\000\000\300q@\000\000\000\000\000`z@\000\000\000\000\000 w@\000\000\000\000\000 w@\000\000\000\000\000\000v@\000\000\000\000\000\000v@\000\000\000\000\000\360u@\000\000\000\000\000\200q@\000\000\000\000\000\360t@\000\000\000\000\000\360t@\000\000\000\000\000\260y@\000\000\000\000\000\260y@\000\000\000\000\000`g@\000\000\000\000\000\340t@\000\000\000\000\000\340t@\000\000\000\000\000\320\204@\000\000\000\000\000\320\204@\000\000\000\000\000\320\204@\000\000\000\000\000\320\204@\000\000\000\000\000\320\204@\000\000\000\000\000\320\204@\000\000\000\000\000\320\204@\000\000\000\000\000\320\204@\000\000\000\000\000\320\204@\000\000\000\000\000\320\204@\000\000\000\000\000\320\204@\000\000\000\000\000\320\204@\000\000\000\000\000\320\204@\000\000\000\000\000\320\204@\000\000\000\000\000\320\204@\000\000\000\000\000\320\204@\000\000\000\000\000\320\204@\000\000\000\000\000\320\204@\000\000\000\000\000\320\204@\000\000\000\000\000\320\204@\000\000\000\000\000\320\204@\000\000\000\000\000\320\204@\000\000\000\000\000\320\204@\000\000\000\000\000\320\204@\000\000\000\000\000\320\204@\000\000\000\000\000\320\204@\000\000\000\000\000\320\204@\000\000\000\000\000\320\204@\000\000\000\000\000\320\204@\000\000\000\000\000\320\204@\000\000\000\000\000\320\204@\000\000\000\000\000\320\204@\000\000\000\000\000\320\204@\000\000\000\000\000\320\204@\000\000\000\000\000\320\204@\000\000\000\000\000\320\204@\000\000\000\000\000\320\204@\000\000\000\000\000\320\204@\000\000\000\000\000\320\204@\000\000\000\000\000\320\204@\000\000\000\000\000\320\204@\000\000\000\000\000\320\204@\000\000\000\000\000\320\204@\000\000\000\000\000\320\204@\000\000\000\000\000\320\204@\000\000\000\000\000\320\204@\000\000\000\000\000\320\204@\000\000\000\000\000\320\204@"
      }
    }
  }
}
node {
  name: "Const_8"
  op: "Const"
  device: "/device:CPU:0"
  attr {
    key: "_output_shapes"
    value {
      list {
        shape {
          dim {
            size: 404
          }
        }
      }
    }
  }
  attr {
    key: "dtype"
    value {
      type: DT_DOUBLE
    }
  }
  attr {
    key: "value"
    value {
      tensor {
        dtype: DT_DOUBLE
        tensor_shape {
          dim {
            size: 404
          }
        }
        tensor_content: "\232\231\231\231\231\231.@\315\314\314\314\314\3141@\315\314\314\314\314\3141@33333\2632@33333\2632@33333\2632@ffffff.@ffffff.@ffffff.@ffffff.@ffffff.@ffffff.@ffffff.@\000\000\000\000\000\0005@\000\000\000\000\000\0005@\000\000\000\000\000\0005@\000\000\000\000\000\0005@\000\000\000\000\000\0005@\000\000\000\000\000\0005@\000\000\000\000\000\0005@\000\000\000\000\000\0005@\000\000\000\000\000\0005@\000\000\000\000\000\0005@\000\000\000\000\000\0005@\000\000\000\000\000\0005@\000\000\000\000\000\0005@\000\000\000\000\000\0005@\000\000\000\000\000\0005@\000\000\000\000\000\0005@\000\000\000\000\000\0005@\000\000\000\000\000\0005@\000\000\000\000\000\0005@\000\000\000\000\000\0005@\000\000\000\000\000\0005@\000\000\000\000\000\0005@3333333@3333333@3333333@3333333@\315\314\314\314\314L2@\315\314\314\314\314L2@fffff\3461@fffff\3461@fffff\3461@fffff\3461@fffff\3461@fffff\3461@fffff\3461@fffff\3461@fffff\3461@\315\314\314\314\314\3140@\315\314\314\314\314\3140@\315\314\314\314\314\3140@\315\314\314\314\314\3140@\232\231\231\231\231\0315@fffff\3461@\315\314\314\314\314L1@333333.@33333\2633@33333\2633@33333\2633@33333\2633@33333\2633@33333\2633@\232\231\231\231\231\2312@\232\231\231\231\231\0310@\232\231\231\231\231\0310@fffff\3462@fffff\3462@fffff\3462@3333333@3333333@3333333@3333333@33333\2632@33333\2632@33333\2632@33333\2632@33333\2632@33333\2632@\000\000\000\000\000\0003@\000\000\000\000\000\0003@\000\000\000\000\000\0003@\000\000\000\000\000\0003@\000\000\000\000\000\2002@\000\000\000\000\000\2002@\000\000\000\000\000\2002@\000\000\000\000\000\2002@\315\314\314\314\314\3141@\315\314\314\314\314\3141@\315\314\314\314\314\3141@\315\314\314\314\314\3141@3333332@3333332@3333332@\000\000\000\000\000\0002@\000\000\000\000\000\0002@\000\000\000\000\000\0002@\000\000\000\000\000\0002@\000\000\000\000\000\0002@fffff\3464@fffff\3464@fffff\3464@fffff\3464@fffff\3464@fffff\3464@fffff\3464@fffff\3464@fffff\3464@fffff\3464@fffff\3464@\315\314\314\314\314\3141@\315\314\314\314\314\3141@\315\314\314\314\314\3141@\315\314\314\314\314\3141@\315\314\314\314\314\3141@\315\314\314\314\314\3141@\315\314\314\314\314\3141@\315\314\314\314\314\3141@\315\314\314\314\314\3141@\232\231\231\231\231\0313@\232\231\231\231\231\0313@\232\231\231\231\231\0313@\232\231\231\231\231\0313@\232\231\231\231\231\0313@\232\231\231\231\231\0313@\232\231\231\231\231\0313@3333335@3333335@3333335@3333335@3333335@3333335@3333335@3333335@3333335@3333335@3333335@3333335@3333335@3333335@3333335@ffffff-@ffffff-@ffffff-@ffffff-@ffffff-@ffffff-@ffffff-@ffffff-@ffffff-@ffffff-@ffffff-@ffffff-@ffffff-@ffffff-@ffffff-@ffffff-@ffffff-@ffffff-@ffffff-@ffffff-@ffffff-@ffffff-@ffffff-@ffffff-@ffffff-@ffffff-@ffffff-@ffffff-@ffffff-@ffffff-@\232\231\231\231\231\2310@\232\231\231\231\231\2310@\232\231\231\231\231\2310@\232\231\231\231\231\2310@\232\231\231\231\231\2310@\232\231\231\231\231\2310@\232\231\231\231\231\2310@\315\314\314\314\314\3141@\315\314\314\314\314\3141@\315\314\314\314\314\3141@\315\314\314\314\314\3141@\315\314\314\314\314\3141@\315\314\314\314\314\3141@\315\314\314\314\314\3141@\315\314\314\314\314\3141@ffffff.@ffffff.@ffffff.@ffffff.@ffffff.@ffffff.@333333/@333333/@\315\314\314\314\314\314,@333333)@333333)@333333)@\000\000\000\000\000\0001@\000\000\000\000\000\0001@ffffff-@ffffff-@ffffff-@ffffff-@\232\231\231\231\231\2312@\232\231\231\231\231\2312@\232\231\231\231\231\2312@\232\231\231\231\231\2312@\232\231\231\231\231\2312@\232\231\231\231\231\2312@\232\231\231\231\231\2312@\232\231\231\231\231\2312@\232\231\231\231\231\2312@\232\231\231\231\231\2312@\232\231\231\231\231\2312@ffffff0@ffffff0@ffffff0@ffffff0@ffffff1@ffffff1@ffffff1@ffffff1@ffffff1@ffffff1@ffffff1@ffffff1@ffffff1@ffffff1@ffffff1@ffffff1@ffffff1@ffffff1@ffffff1@ffffff1@ffffff1@ffffff1@\232\231\231\231\231\2310@\232\231\231\231\231\2310@\232\231\231\231\231\2310@\232\231\231\231\231\2310@\232\231\231\231\231\2310@\232\231\231\231\231\2310@\232\231\231\231\231\0313@\232\231\231\231\231\0313@\232\231\231\231\231\0313@\232\231\231\231\231\0313@\232\231\231\231\231\0313@\232\231\231\231\231\0313@\232\231\231\231\231\0313@\232\231\231\231\231\0313@\232\231\231\231\231\0313@\232\231\231\231\231\0313@ffffff0@ffffff0@\315\314\314\314\314\314/@\000\000\000\000\000\000*@\000\000\000\000\000\000*@\000\000\000\000\000\000*@\000\000\000\000\000\000*@\000\000\000\000\000\000*@\000\000\000\000\000\000*@\000\000\000\000\000\000*@\000\000\000\000\000\000*@\000\000\000\000\000\000*@\000\000\000\000\000\000*@\000\000\000\000\000\000*@\000\000\000\000\000\000*@\232\231\231\231\231\2312@\232\231\231\231\231\2312@\232\231\231\231\231\2312@\232\231\231\231\231\2312@\232\231\231\231\231\2312@\232\231\231\231\231\2311@\232\231\231\231\231\2311@\232\231\231\231\231\2311@\232\231\231\231\231\2311@\232\231\231\231\231\2311@\315\314\314\314\314\314-@\315\314\314\314\314\314-@\315\314\314\314\314\314-@\315\314\314\314\314\314-@333333+@\232\231\231\231\231\231.@\232\231\231\231\231\231.@3333332@\232\231\231\231\231\2310@\232\231\231\231\231\2310@\232\231\231\231\231\2310@3333333@3333333@3333333@\000\000\000\000\000\0000@\000\000\000\000\000\0000@\000\000\000\000\000\0000@\000\000\000\000\000\0000@\000\000\000\000\000\0000@\232\231\231\231\231\231-@\232\231\231\231\231\231-@\232\231\231\231\231\231-@\232\231\231\231\231\0310@\232\231\231\231\231\0310@\232\231\231\231\231\0310@ffffff2@ffffff2@ffffff2@ffffff2@ffffff2@ffffff2@ffffff2@ffffff2@ffffff2@ffffff2@ffffff2@ffffff2@ffffff2@ffffff2@ffffff2@ffffff2@\232\231\231\231\231\2313@\232\231\231\231\231\2313@\232\231\231\231\231\2313@\232\231\231\231\231\2313@\232\231\231\231\231\2313@\232\231\231\231\231\2313@\232\231\231\231\231\2313@\232\231\231\231\231\2313@fffff\3460@fffff\3460@fffff\3460@fffff\3460@fffff\3460@3333334@3333334@3333334@3333334@3333334@3333334@3333334@3333334@\000\000\000\000\000\000/@\315\314\314\314\314\314/@\232\231\231\231\231\2311@\232\231\231\231\231\2311@\315\314\314\314\314\3142@\315\314\314\314\314\3142@fffff\3461@\000\000\000\000\000\0001@33333\2633@33333\2633@\315\314\314\314\314L2@\315\314\314\314\314L2@\000\000\000\000\000\0001@\000\000\000\000\000\0006@\000\000\000\000\000\0006@3333334@3333334@3333334@3333334@3333334@3333334@3333334@3333334@3333334@3333334@3333334@3333334@3333334@3333334@3333334@3333334@3333334@3333334@3333334@3333334@3333334@3333334@3333334@3333334@3333334@3333334@3333334@3333334@3333334@3333334@3333334@3333334@3333334@3333334@3333334@3333334@3333334@3333334@3333334@3333334@3333334@3333334@3333334@3333334@3333334@3333334@3333334@3333334@"
      }
    }
  }
}
node {
  name: "Const_9"
  op: "Const"
  device: "/device:CPU:0"
  attr {
    key: "_output_shapes"
    value {
      list {
        shape {
          dim {
            size: 404
          }
        }
      }
    }
  }
  attr {
    key: "dtype"
    value {
      type: DT_INT64
    }
  }
  attr {
    key: "value"
    value {
      tensor {
        dtype: DT_INT64
        tensor_shape {
          dim {
            size: 404
          }
        }
